{
	"version": "1.0",
	"truncation": null,
	"padding": null,
	"added_tokens": [
		{
			"id": 0,
			"content": "[PAD]",
			"single_word": false,
			"lstrip": false,
			"rstrip": false,
			"normalized": false,
			"special": true
		},
		{
			"id": 1,
			"content": "[UNK]",
			"single_word": false,
			"lstrip": false,
			"rstrip": false,
			"normalized": false,
			"special": true
		},
		{
			"id": 2,
			"content": "[CLS]",
			"single_word": false,
			"lstrip": false,
			"rstrip": false,
			"normalized": false,
			"special": true
		},
		{
			"id": 3,
			"content": "[SEP]",
			"single_word": false,
			"lstrip": false,
			"rstrip": false,
			"normalized": false,
			"special": true
		},
		{
			"id": 4,
			"content": "[MASK]",
			"single_word": false,
			"lstrip": false,
			"rstrip": false,
			"normalized": false,
			"special": true
		}
	],
	"normalizer": {
		"type": "BertNormalizer",
		"clean_text": true,
		"handle_chinese_chars": true,
		"strip_accents": null,
		"lowercase": true
	},
	"pre_tokenizer": {
		"type": "BertPreTokenizer"
	},
	"post_processor": {
		"type": "TemplateProcessing",
		"single": [
			{
				"SpecialToken": {
					"id": "[CLS]",
					"type_id": 0
				}
			},
			{
				"Sequence": {
					"id": "A",
					"type_id": 0
				}
			},
			{
				"SpecialToken": {
					"id": "[SEP]",
					"type_id": 0
				}
			}
		],
		"pair": [
			{
				"SpecialToken": {
					"id": "[CLS]",
					"type_id": 0
				}
			},
			{
				"Sequence": {
					"id": "A",
					"type_id": 0
				}
			},
			{
				"SpecialToken": {
					"id": "[SEP]",
					"type_id": 0
				}
			},
			{
				"Sequence": {
					"id": "B",
					"type_id": 1
				}
			},
			{
				"SpecialToken": {
					"id": "[SEP]",
					"type_id": 1
				}
			}
		],
		"special_tokens": {
			"[CLS]": {
				"id": "[CLS]",
				"ids": [2],
				"tokens": ["[CLS]"]
			},
			"[SEP]": {
				"id": "[SEP]",
				"ids": [3],
				"tokens": ["[SEP]"]
			}
		}
	},
	"decoder": {
		"type": "WordPiece",
		"prefix": "##",
		"cleanup": true
	},
	"model": {
		"type": "WordPiece",
		"unk_token": "[UNK]",
		"continuing_subword_prefix": "##",
		"max_input_chars_per_word": 100,
		"vocab": {
			"[PAD]": 0,
			"[UNK]": 1,
			"[CLS]": 2,
			"[SEP]": 3,
			"[MASK]": 4,
			"!": 5,
			"\"": 6,
			"#": 7,
			"$": 8,
			"%": 9,
			"&": 10,
			"'": 11,
			"(": 12,
			")": 13,
			"*": 14,
			"+": 15,
			",": 16,
			"-": 17,
			".": 18,
			"/": 19,
			"0": 20,
			"1": 21,
			"2": 22,
			"3": 23,
			"4": 24,
			"5": 25,
			"6": 26,
			"7": 27,
			"8": 28,
			"9": 29,
			":": 30,
			";": 31,
			"<": 32,
			"=": 33,
			">": 34,
			"?": 35,
			"@": 36,
			"[": 37,
			"\\": 38,
			"]": 39,
			"^": 40,
			"_": 41,
			"`": 42,
			"a": 43,
			"b": 44,
			"c": 45,
			"d": 46,
			"e": 47,
			"f": 48,
			"g": 49,
			"h": 50,
			"i": 51,
			"j": 52,
			"k": 53,
			"l": 54,
			"m": 55,
			"n": 56,
			"o": 57,
			"p": 58,
			"q": 59,
			"r": 60,
			"s": 61,
			"t": 62,
			"u": 63,
			"v": 64,
			"w": 65,
			"x": 66,
			"y": 67,
			"z": 68,
			"{": 69,
			"|": 70,
			"}": 71,
			"~": 72,
			"¡": 73,
			"¢": 74,
			"£": 75,
			"¤": 76,
			"¥": 77,
			"¦": 78,
			"§": 79,
			"¨": 80,
			"©": 81,
			"ª": 82,
			"«": 83,
			"¬": 84,
			"®": 85,
			"°": 86,
			"±": 87,
			"²": 88,
			"³": 89,
			"´": 90,
			"µ": 91,
			"¶": 92,
			"·": 93,
			"¹": 94,
			"º": 95,
			"»": 96,
			"¼": 97,
			"½": 98,
			"¾": 99,
			"¿": 100,
			"×": 101,
			"ß": 102,
			"æ": 103,
			"ð": 104,
			"÷": 105,
			"ø": 106,
			"þ": 107,
			"đ": 108,
			"ħ": 109,
			"ı": 110,
			"ł": 111,
			"ŋ": 112,
			"œ": 113,
			"ƒ": 114,
			"ɐ": 115,
			"ɑ": 116,
			"ɒ": 117,
			"ɔ": 118,
			"ɕ": 119,
			"ə": 120,
			"ɛ": 121,
			"ɡ": 122,
			"ɣ": 123,
			"ɨ": 124,
			"ɪ": 125,
			"ɫ": 126,
			"ɬ": 127,
			"ɯ": 128,
			"ɲ": 129,
			"ɴ": 130,
			"ɹ": 131,
			"ɾ": 132,
			"ʀ": 133,
			"ʁ": 134,
			"ʂ": 135,
			"ʃ": 136,
			"ʉ": 137,
			"ʊ": 138,
			"ʋ": 139,
			"ʌ": 140,
			"ʎ": 141,
			"ʐ": 142,
			"ʑ": 143,
			"ʒ": 144,
			"ʔ": 145,
			"ʰ": 146,
			"ʲ": 147,
			"ʳ": 148,
			"ʷ": 149,
			"ʸ": 150,
			"ʻ": 151,
			"ʼ": 152,
			"ʾ": 153,
			"ʿ": 154,
			"ˈ": 155,
			"ː": 156,
			"ˡ": 157,
			"ˢ": 158,
			"ˣ": 159,
			"ˤ": 160,
			"α": 161,
			"β": 162,
			"γ": 163,
			"δ": 164,
			"ε": 165,
			"ζ": 166,
			"η": 167,
			"θ": 168,
			"ι": 169,
			"κ": 170,
			"λ": 171,
			"μ": 172,
			"ν": 173,
			"ξ": 174,
			"ο": 175,
			"π": 176,
			"ρ": 177,
			"ς": 178,
			"σ": 179,
			"τ": 180,
			"υ": 181,
			"φ": 182,
			"χ": 183,
			"ψ": 184,
			"ω": 185,
			"а": 186,
			"б": 187,
			"в": 188,
			"г": 189,
			"д": 190,
			"е": 191,
			"ж": 192,
			"з": 193,
			"и": 194,
			"к": 195,
			"л": 196,
			"м": 197,
			"н": 198,
			"о": 199,
			"п": 200,
			"р": 201,
			"с": 202,
			"т": 203,
			"у": 204,
			"ф": 205,
			"х": 206,
			"ц": 207,
			"ч": 208,
			"ш": 209,
			"щ": 210,
			"ъ": 211,
			"ы": 212,
			"ь": 213,
			"э": 214,
			"ю": 215,
			"я": 216,
			"ђ": 217,
			"є": 218,
			"і": 219,
			"ј": 220,
			"љ": 221,
			"њ": 222,
			"ћ": 223,
			"ӏ": 224,
			"ա": 225,
			"բ": 226,
			"գ": 227,
			"դ": 228,
			"ե": 229,
			"թ": 230,
			"ի": 231,
			"լ": 232,
			"կ": 233,
			"հ": 234,
			"մ": 235,
			"յ": 236,
			"ն": 237,
			"ո": 238,
			"պ": 239,
			"ս": 240,
			"վ": 241,
			"տ": 242,
			"ր": 243,
			"ւ": 244,
			"ք": 245,
			"־": 246,
			"א": 247,
			"ב": 248,
			"ג": 249,
			"ד": 250,
			"ה": 251,
			"ו": 252,
			"ז": 253,
			"ח": 254,
			"ט": 255,
			"י": 256,
			"ך": 257,
			"כ": 258,
			"ל": 259,
			"ם": 260,
			"מ": 261,
			"ן": 262,
			"נ": 263,
			"ס": 264,
			"ע": 265,
			"ף": 266,
			"פ": 267,
			"ץ": 268,
			"צ": 269,
			"ק": 270,
			"ר": 271,
			"ש": 272,
			"ת": 273,
			"،": 274,
			"ء": 275,
			"ا": 276,
			"ب": 277,
			"ة": 278,
			"ت": 279,
			"ث": 280,
			"ج": 281,
			"ح": 282,
			"خ": 283,
			"د": 284,
			"ذ": 285,
			"ر": 286,
			"ز": 287,
			"س": 288,
			"ش": 289,
			"ص": 290,
			"ض": 291,
			"ط": 292,
			"ظ": 293,
			"ع": 294,
			"غ": 295,
			"ـ": 296,
			"ف": 297,
			"ق": 298,
			"ك": 299,
			"ل": 300,
			"م": 301,
			"ن": 302,
			"ه": 303,
			"و": 304,
			"ى": 305,
			"ي": 306,
			"ٹ": 307,
			"پ": 308,
			"چ": 309,
			"ک": 310,
			"گ": 311,
			"ں": 312,
			"ھ": 313,
			"ہ": 314,
			"ی": 315,
			"ے": 316,
			"अ": 317,
			"आ": 318,
			"उ": 319,
			"ए": 320,
			"क": 321,
			"ख": 322,
			"ग": 323,
			"च": 324,
			"ज": 325,
			"ट": 326,
			"ड": 327,
			"ण": 328,
			"त": 329,
			"थ": 330,
			"द": 331,
			"ध": 332,
			"न": 333,
			"प": 334,
			"ब": 335,
			"भ": 336,
			"म": 337,
			"य": 338,
			"र": 339,
			"ल": 340,
			"व": 341,
			"श": 342,
			"ष": 343,
			"स": 344,
			"ह": 345,
			"ा": 346,
			"ि": 347,
			"ी": 348,
			"ो": 349,
			"।": 350,
			"॥": 351,
			"ং": 352,
			"অ": 353,
			"আ": 354,
			"ই": 355,
			"উ": 356,
			"এ": 357,
			"ও": 358,
			"ক": 359,
			"খ": 360,
			"গ": 361,
			"চ": 362,
			"ছ": 363,
			"জ": 364,
			"ট": 365,
			"ড": 366,
			"ণ": 367,
			"ত": 368,
			"থ": 369,
			"দ": 370,
			"ধ": 371,
			"ন": 372,
			"প": 373,
			"ব": 374,
			"ভ": 375,
			"ম": 376,
			"য": 377,
			"র": 378,
			"ল": 379,
			"শ": 380,
			"ষ": 381,
			"স": 382,
			"হ": 383,
			"া": 384,
			"ি": 385,
			"ী": 386,
			"ে": 387,
			"க": 388,
			"ச": 389,
			"ட": 390,
			"த": 391,
			"ந": 392,
			"ன": 393,
			"ப": 394,
			"ம": 395,
			"ய": 396,
			"ர": 397,
			"ல": 398,
			"ள": 399,
			"வ": 400,
			"ா": 401,
			"ி": 402,
			"ு": 403,
			"ே": 404,
			"ை": 405,
			"ನ": 406,
			"ರ": 407,
			"ಾ": 408,
			"ක": 409,
			"ය": 410,
			"ර": 411,
			"ල": 412,
			"ව": 413,
			"ා": 414,
			"ก": 415,
			"ง": 416,
			"ต": 417,
			"ท": 418,
			"น": 419,
			"พ": 420,
			"ม": 421,
			"ย": 422,
			"ร": 423,
			"ล": 424,
			"ว": 425,
			"ส": 426,
			"อ": 427,
			"า": 428,
			"เ": 429,
			"་": 430,
			"།": 431,
			"ག": 432,
			"ང": 433,
			"ད": 434,
			"ན": 435,
			"པ": 436,
			"བ": 437,
			"མ": 438,
			"འ": 439,
			"ར": 440,
			"ལ": 441,
			"ས": 442,
			"မ": 443,
			"ა": 444,
			"ბ": 445,
			"გ": 446,
			"დ": 447,
			"ე": 448,
			"ვ": 449,
			"თ": 450,
			"ი": 451,
			"კ": 452,
			"ლ": 453,
			"მ": 454,
			"ნ": 455,
			"ო": 456,
			"რ": 457,
			"ს": 458,
			"ტ": 459,
			"უ": 460,
			"ᄀ": 461,
			"ᄂ": 462,
			"ᄃ": 463,
			"ᄅ": 464,
			"ᄆ": 465,
			"ᄇ": 466,
			"ᄉ": 467,
			"ᄊ": 468,
			"ᄋ": 469,
			"ᄌ": 470,
			"ᄎ": 471,
			"ᄏ": 472,
			"ᄐ": 473,
			"ᄑ": 474,
			"ᄒ": 475,
			"ᅡ": 476,
			"ᅢ": 477,
			"ᅥ": 478,
			"ᅦ": 479,
			"ᅧ": 480,
			"ᅩ": 481,
			"ᅪ": 482,
			"ᅭ": 483,
			"ᅮ": 484,
			"ᅯ": 485,
			"ᅲ": 486,
			"ᅳ": 487,
			"ᅴ": 488,
			"ᅵ": 489,
			"ᆨ": 490,
			"ᆫ": 491,
			"ᆯ": 492,
			"ᆷ": 493,
			"ᆸ": 494,
			"ᆼ": 495,
			"ᴬ": 496,
			"ᴮ": 497,
			"ᴰ": 498,
			"ᴵ": 499,
			"ᴺ": 500,
			"ᵀ": 501,
			"ᵃ": 502,
			"ᵇ": 503,
			"ᵈ": 504,
			"ᵉ": 505,
			"ᵍ": 506,
			"ᵏ": 507,
			"ᵐ": 508,
			"ᵒ": 509,
			"ᵖ": 510,
			"ᵗ": 511,
			"ᵘ": 512,
			"ᵢ": 513,
			"ᵣ": 514,
			"ᵤ": 515,
			"ᵥ": 516,
			"ᶜ": 517,
			"ᶠ": 518,
			"‐": 519,
			"‑": 520,
			"‒": 521,
			"–": 522,
			"—": 523,
			"―": 524,
			"‖": 525,
			"‘": 526,
			"’": 527,
			"‚": 528,
			"“": 529,
			"”": 530,
			"„": 531,
			"†": 532,
			"‡": 533,
			"•": 534,
			"…": 535,
			"‰": 536,
			"′": 537,
			"″": 538,
			"›": 539,
			"‿": 540,
			"⁄": 541,
			"⁰": 542,
			"ⁱ": 543,
			"⁴": 544,
			"⁵": 545,
			"⁶": 546,
			"⁷": 547,
			"⁸": 548,
			"⁹": 549,
			"⁺": 550,
			"⁻": 551,
			"ⁿ": 552,
			"₀": 553,
			"₁": 554,
			"₂": 555,
			"₃": 556,
			"₄": 557,
			"₅": 558,
			"₆": 559,
			"₇": 560,
			"₈": 561,
			"₉": 562,
			"₊": 563,
			"₍": 564,
			"₎": 565,
			"ₐ": 566,
			"ₑ": 567,
			"ₒ": 568,
			"ₓ": 569,
			"ₕ": 570,
			"ₖ": 571,
			"ₗ": 572,
			"ₘ": 573,
			"ₙ": 574,
			"ₚ": 575,
			"ₛ": 576,
			"ₜ": 577,
			"₤": 578,
			"₩": 579,
			"€": 580,
			"₱": 581,
			"₹": 582,
			"ℓ": 583,
			"№": 584,
			"ℝ": 585,
			"™": 586,
			"⅓": 587,
			"⅔": 588,
			"←": 589,
			"↑": 590,
			"→": 591,
			"↓": 592,
			"↔": 593,
			"↦": 594,
			"⇄": 595,
			"⇌": 596,
			"⇒": 597,
			"∂": 598,
			"∅": 599,
			"∆": 600,
			"∇": 601,
			"∈": 602,
			"−": 603,
			"∗": 604,
			"∘": 605,
			"√": 606,
			"∞": 607,
			"∧": 608,
			"∨": 609,
			"∩": 610,
			"∪": 611,
			"≈": 612,
			"≡": 613,
			"≤": 614,
			"≥": 615,
			"⊂": 616,
			"⊆": 617,
			"⊕": 618,
			"⊗": 619,
			"⋅": 620,
			"─": 621,
			"│": 622,
			"■": 623,
			"▪": 624,
			"●": 625,
			"★": 626,
			"☆": 627,
			"☉": 628,
			"♠": 629,
			"♣": 630,
			"♥": 631,
			"♦": 632,
			"♭": 633,
			"♯": 634,
			"⟨": 635,
			"⟩": 636,
			"ⱼ": 637,
			"⺩": 638,
			"⺼": 639,
			"⽥": 640,
			"、": 641,
			"。": 642,
			"〈": 643,
			"〉": 644,
			"《": 645,
			"》": 646,
			"「": 647,
			"」": 648,
			"『": 649,
			"』": 650,
			"〜": 651,
			"あ": 652,
			"い": 653,
			"う": 654,
			"え": 655,
			"お": 656,
			"か": 657,
			"き": 658,
			"く": 659,
			"け": 660,
			"こ": 661,
			"さ": 662,
			"し": 663,
			"す": 664,
			"せ": 665,
			"そ": 666,
			"た": 667,
			"ち": 668,
			"っ": 669,
			"つ": 670,
			"て": 671,
			"と": 672,
			"な": 673,
			"に": 674,
			"ぬ": 675,
			"ね": 676,
			"の": 677,
			"は": 678,
			"ひ": 679,
			"ふ": 680,
			"へ": 681,
			"ほ": 682,
			"ま": 683,
			"み": 684,
			"む": 685,
			"め": 686,
			"も": 687,
			"や": 688,
			"ゆ": 689,
			"よ": 690,
			"ら": 691,
			"り": 692,
			"る": 693,
			"れ": 694,
			"ろ": 695,
			"を": 696,
			"ん": 697,
			"ァ": 698,
			"ア": 699,
			"ィ": 700,
			"イ": 701,
			"ウ": 702,
			"ェ": 703,
			"エ": 704,
			"オ": 705,
			"カ": 706,
			"キ": 707,
			"ク": 708,
			"ケ": 709,
			"コ": 710,
			"サ": 711,
			"シ": 712,
			"ス": 713,
			"セ": 714,
			"タ": 715,
			"チ": 716,
			"ッ": 717,
			"ツ": 718,
			"テ": 719,
			"ト": 720,
			"ナ": 721,
			"ニ": 722,
			"ノ": 723,
			"ハ": 724,
			"ヒ": 725,
			"フ": 726,
			"ヘ": 727,
			"ホ": 728,
			"マ": 729,
			"ミ": 730,
			"ム": 731,
			"メ": 732,
			"モ": 733,
			"ャ": 734,
			"ュ": 735,
			"ョ": 736,
			"ラ": 737,
			"リ": 738,
			"ル": 739,
			"レ": 740,
			"ロ": 741,
			"ワ": 742,
			"ン": 743,
			"・": 744,
			"ー": 745,
			"一": 746,
			"三": 747,
			"上": 748,
			"下": 749,
			"不": 750,
			"世": 751,
			"中": 752,
			"主": 753,
			"久": 754,
			"之": 755,
			"也": 756,
			"事": 757,
			"二": 758,
			"五": 759,
			"井": 760,
			"京": 761,
			"人": 762,
			"亻": 763,
			"仁": 764,
			"介": 765,
			"代": 766,
			"仮": 767,
			"伊": 768,
			"会": 769,
			"佐": 770,
			"侍": 771,
			"保": 772,
			"信": 773,
			"健": 774,
			"元": 775,
			"光": 776,
			"八": 777,
			"公": 778,
			"内": 779,
			"出": 780,
			"分": 781,
			"前": 782,
			"劉": 783,
			"力": 784,
			"加": 785,
			"勝": 786,
			"北": 787,
			"区": 788,
			"十": 789,
			"千": 790,
			"南": 791,
			"博": 792,
			"原": 793,
			"口": 794,
			"古": 795,
			"史": 796,
			"司": 797,
			"合": 798,
			"吉": 799,
			"同": 800,
			"名": 801,
			"和": 802,
			"囗": 803,
			"四": 804,
			"国": 805,
			"國": 806,
			"土": 807,
			"地": 808,
			"坂": 809,
			"城": 810,
			"堂": 811,
			"場": 812,
			"士": 813,
			"夏": 814,
			"外": 815,
			"大": 816,
			"天": 817,
			"太": 818,
			"夫": 819,
			"奈": 820,
			"女": 821,
			"子": 822,
			"学": 823,
			"宀": 824,
			"宇": 825,
			"安": 826,
			"宗": 827,
			"定": 828,
			"宣": 829,
			"宮": 830,
			"家": 831,
			"宿": 832,
			"寺": 833,
			"將": 834,
			"小": 835,
			"尚": 836,
			"山": 837,
			"岡": 838,
			"島": 839,
			"崎": 840,
			"川": 841,
			"州": 842,
			"巿": 843,
			"帝": 844,
			"平": 845,
			"年": 846,
			"幸": 847,
			"广": 848,
			"弘": 849,
			"張": 850,
			"彳": 851,
			"後": 852,
			"御": 853,
			"德": 854,
			"心": 855,
			"忄": 856,
			"志": 857,
			"忠": 858,
			"愛": 859,
			"成": 860,
			"我": 861,
			"戦": 862,
			"戸": 863,
			"手": 864,
			"扌": 865,
			"政": 866,
			"文": 867,
			"新": 868,
			"方": 869,
			"日": 870,
			"明": 871,
			"星": 872,
			"春": 873,
			"昭": 874,
			"智": 875,
			"曲": 876,
			"書": 877,
			"月": 878,
			"有": 879,
			"朝": 880,
			"木": 881,
			"本": 882,
			"李": 883,
			"村": 884,
			"東": 885,
			"松": 886,
			"林": 887,
			"森": 888,
			"楊": 889,
			"樹": 890,
			"橋": 891,
			"歌": 892,
			"止": 893,
			"正": 894,
			"武": 895,
			"比": 896,
			"氏": 897,
			"民": 898,
			"水": 899,
			"氵": 900,
			"氷": 901,
			"永": 902,
			"江": 903,
			"沢": 904,
			"河": 905,
			"治": 906,
			"法": 907,
			"海": 908,
			"清": 909,
			"漢": 910,
			"瀬": 911,
			"火": 912,
			"版": 913,
			"犬": 914,
			"王": 915,
			"生": 916,
			"田": 917,
			"男": 918,
			"疒": 919,
			"発": 920,
			"白": 921,
			"的": 922,
			"皇": 923,
			"目": 924,
			"相": 925,
			"省": 926,
			"真": 927,
			"石": 928,
			"示": 929,
			"社": 930,
			"神": 931,
			"福": 932,
			"禾": 933,
			"秀": 934,
			"秋": 935,
			"空": 936,
			"立": 937,
			"章": 938,
			"竹": 939,
			"糹": 940,
			"美": 941,
			"義": 942,
			"耳": 943,
			"良": 944,
			"艹": 945,
			"花": 946,
			"英": 947,
			"華": 948,
			"葉": 949,
			"藤": 950,
			"行": 951,
			"街": 952,
			"西": 953,
			"見": 954,
			"訁": 955,
			"語": 956,
			"谷": 957,
			"貝": 958,
			"貴": 959,
			"車": 960,
			"軍": 961,
			"辶": 962,
			"道": 963,
			"郎": 964,
			"郡": 965,
			"部": 966,
			"都": 967,
			"里": 968,
			"野": 969,
			"金": 970,
			"鈴": 971,
			"镇": 972,
			"長": 973,
			"門": 974,
			"間": 975,
			"阝": 976,
			"阿": 977,
			"陳": 978,
			"陽": 979,
			"雄": 980,
			"青": 981,
			"面": 982,
			"風": 983,
			"食": 984,
			"香": 985,
			"馬": 986,
			"高": 987,
			"龍": 988,
			"龸": 989,
			"ﬁ": 990,
			"ﬂ": 991,
			"！": 992,
			"（": 993,
			"）": 994,
			"，": 995,
			"－": 996,
			"．": 997,
			"／": 998,
			"：": 999,
			"？": 1000,
			"～": 1001,
			"the": 1002,
			"of": 1003,
			"and": 1004,
			"in": 1005,
			"to": 1006,
			"was": 1007,
			"he": 1008,
			"is": 1009,
			"as": 1010,
			"for": 1011,
			"on": 1012,
			"with": 1013,
			"that": 1014,
			"it": 1015,
			"his": 1016,
			"by": 1017,
			"at": 1018,
			"from": 1019,
			"her": 1020,
			"##s": 1021,
			"she": 1022,
			"you": 1023,
			"had": 1024,
			"an": 1025,
			"were": 1026,
			"but": 1027,
			"be": 1028,
			"this": 1029,
			"are": 1030,
			"not": 1031,
			"my": 1032,
			"they": 1033,
			"one": 1034,
			"which": 1035,
			"or": 1036,
			"have": 1037,
			"him": 1038,
			"me": 1039,
			"first": 1040,
			"all": 1041,
			"also": 1042,
			"their": 1043,
			"has": 1044,
			"up": 1045,
			"who": 1046,
			"out": 1047,
			"been": 1048,
			"when": 1049,
			"after": 1050,
			"there": 1051,
			"into": 1052,
			"new": 1053,
			"two": 1054,
			"its": 1055,
			"##a": 1056,
			"time": 1057,
			"would": 1058,
			"no": 1059,
			"what": 1060,
			"about": 1061,
			"said": 1062,
			"we": 1063,
			"over": 1064,
			"then": 1065,
			"other": 1066,
			"so": 1067,
			"more": 1068,
			"##e": 1069,
			"can": 1070,
			"if": 1071,
			"like": 1072,
			"back": 1073,
			"them": 1074,
			"only": 1075,
			"some": 1076,
			"could": 1077,
			"##i": 1078,
			"where": 1079,
			"just": 1080,
			"##ing": 1081,
			"during": 1082,
			"before": 1083,
			"##n": 1084,
			"do": 1085,
			"##o": 1086,
			"made": 1087,
			"school": 1088,
			"through": 1089,
			"than": 1090,
			"now": 1091,
			"years": 1092,
			"most": 1093,
			"world": 1094,
			"may": 1095,
			"between": 1096,
			"down": 1097,
			"well": 1098,
			"three": 1099,
			"##d": 1100,
			"year": 1101,
			"while": 1102,
			"will": 1103,
			"##ed": 1104,
			"##r": 1105,
			"##y": 1106,
			"later": 1107,
			"##t": 1108,
			"city": 1109,
			"under": 1110,
			"around": 1111,
			"did": 1112,
			"such": 1113,
			"being": 1114,
			"used": 1115,
			"state": 1116,
			"people": 1117,
			"part": 1118,
			"know": 1119,
			"against": 1120,
			"your": 1121,
			"many": 1122,
			"second": 1123,
			"both": 1124,
			"national": 1125,
			"##er": 1126,
			"these": 1127,
			"don": 1128,
			"known": 1129,
			"off": 1130,
			"way": 1131,
			"until": 1132,
			"re": 1133,
			"how": 1134,
			"even": 1135,
			"get": 1136,
			"head": 1137,
			"didn": 1138,
			"##ly": 1139,
			"team": 1140,
			"american": 1141,
			"because": 1142,
			"de": 1143,
			"##l": 1144,
			"born": 1145,
			"united": 1146,
			"film": 1147,
			"since": 1148,
			"still": 1149,
			"long": 1150,
			"work": 1151,
			"south": 1152,
			"us": 1153,
			"became": 1154,
			"any": 1155,
			"high": 1156,
			"again": 1157,
			"day": 1158,
			"family": 1159,
			"see": 1160,
			"right": 1161,
			"man": 1162,
			"eyes": 1163,
			"house": 1164,
			"season": 1165,
			"war": 1166,
			"states": 1167,
			"including": 1168,
			"took": 1169,
			"life": 1170,
			"north": 1171,
			"same": 1172,
			"each": 1173,
			"called": 1174,
			"name": 1175,
			"much": 1176,
			"place": 1177,
			"however": 1178,
			"go": 1179,
			"four": 1180,
			"group": 1181,
			"another": 1182,
			"found": 1183,
			"won": 1184,
			"area": 1185,
			"here": 1186,
			"going": 1187,
			"10": 1188,
			"away": 1189,
			"series": 1190,
			"left": 1191,
			"home": 1192,
			"music": 1193,
			"best": 1194,
			"make": 1195,
			"hand": 1196,
			"number": 1197,
			"company": 1198,
			"several": 1199,
			"never": 1200,
			"last": 1201,
			"john": 1202,
			"000": 1203,
			"very": 1204,
			"album": 1205,
			"take": 1206,
			"end": 1207,
			"good": 1208,
			"too": 1209,
			"following": 1210,
			"released": 1211,
			"game": 1212,
			"played": 1213,
			"little": 1214,
			"began": 1215,
			"district": 1216,
			"##m": 1217,
			"old": 1218,
			"want": 1219,
			"those": 1220,
			"side": 1221,
			"held": 1222,
			"own": 1223,
			"early": 1224,
			"county": 1225,
			"ll": 1226,
			"use": 1227,
			"west": 1228,
			"##u": 1229,
			"face": 1230,
			"think": 1231,
			"##es": 1232,
			"2010": 1233,
			"##h": 1234,
			"march": 1235,
			"came": 1236,
			"small": 1237,
			"general": 1238,
			"town": 1239,
			"##on": 1240,
			"line": 1241,
			"based": 1242,
			"something": 1243,
			"##k": 1244,
			"september": 1245,
			"thought": 1246,
			"looked": 1247,
			"along": 1248,
			"international": 1249,
			"air": 1250,
			"club": 1251,
			"went": 1252,
			"january": 1253,
			"october": 1254,
			"our": 1255,
			"august": 1256,
			"april": 1257,
			"york": 1258,
			"12": 1259,
			"few": 1260,
			"2008": 1261,
			"east": 1262,
			"show": 1263,
			"member": 1264,
			"college": 1265,
			"2009": 1266,
			"father": 1267,
			"public": 1268,
			"##us": 1269,
			"come": 1270,
			"men": 1271,
			"five": 1272,
			"set": 1273,
			"station": 1274,
			"church": 1275,
			"##c": 1276,
			"next": 1277,
			"former": 1278,
			"room": 1279,
			"party": 1280,
			"located": 1281,
			"december": 1282,
			"2013": 1283,
			"age": 1284,
			"got": 1285,
			"2007": 1286,
			"##g": 1287,
			"system": 1288,
			"let": 1289,
			"love": 1290,
			"2006": 1291,
			"though": 1292,
			"every": 1293,
			"2014": 1294,
			"look": 1295,
			"water": 1296,
			"century": 1297,
			"without": 1298,
			"body": 1299,
			"black": 1300,
			"night": 1301,
			"within": 1302,
			"great": 1303,
			"women": 1304,
			"single": 1305,
			"ve": 1306,
			"building": 1307,
			"large": 1308,
			"river": 1309,
			"named": 1310,
			"band": 1311,
			"white": 1312,
			"started": 1313,
			"##an": 1314,
			"once": 1315,
			"15": 1316,
			"20": 1317,
			"should": 1318,
			"18": 1319,
			"service": 1320,
			"top": 1321,
			"built": 1322,
			"british": 1323,
			"open": 1324,
			"death": 1325,
			"king": 1326,
			"moved": 1327,
			"local": 1328,
			"times": 1329,
			"children": 1330,
			"february": 1331,
			"book": 1332,
			"why": 1333,
			"11": 1334,
			"door": 1335,
			"need": 1336,
			"president": 1337,
			"order": 1338,
			"final": 1339,
			"road": 1340,
			"wasn": 1341,
			"although": 1342,
			"due": 1343,
			"major": 1344,
			"died": 1345,
			"village": 1346,
			"third": 1347,
			"knew": 1348,
			"asked": 1349,
			"turned": 1350,
			"st": 1351,
			"wanted": 1352,
			"say": 1353,
			"##p": 1354,
			"together": 1355,
			"main": 1356,
			"son": 1357,
			"served": 1358,
			"different": 1359,
			"##en": 1360,
			"behind": 1361,
			"felt": 1362,
			"members": 1363,
			"power": 1364,
			"football": 1365,
			"law": 1366,
			"voice": 1367,
			"play": 1368,
			"##in": 1369,
			"near": 1370,
			"park": 1371,
			"history": 1372,
			"30": 1373,
			"having": 1374,
			"2005": 1375,
			"16": 1376,
			"##man": 1377,
			"saw": 1378,
			"mother": 1379,
			"##al": 1380,
			"army": 1381,
			"point": 1382,
			"front": 1383,
			"help": 1384,
			"english": 1385,
			"street": 1386,
			"art": 1387,
			"late": 1388,
			"hands": 1389,
			"##ia": 1390,
			"young": 1391,
			"14": 1392,
			"put": 1393,
			"published": 1394,
			"country": 1395,
			"division": 1396,
			"across": 1397,
			"told": 1398,
			"13": 1399,
			"often": 1400,
			"ever": 1401,
			"french": 1402,
			"london": 1403,
			"center": 1404,
			"six": 1405,
			"red": 1406,
			"days": 1407,
			"include": 1408,
			"light": 1409,
			"25": 1410,
			"find": 1411,
			"tell": 1412,
			"among": 1413,
			"really": 1414,
			"according": 1415,
			"central": 1416,
			"half": 1417,
			"2004": 1418,
			"form": 1419,
			"original": 1420,
			"gave": 1421,
			"office": 1422,
			"making": 1423,
			"enough": 1424,
			"lost": 1425,
			"full": 1426,
			"opened": 1427,
			"must": 1428,
			"included": 1429,
			"live": 1430,
			"given": 1431,
			"german": 1432,
			"player": 1433,
			"run": 1434,
			"business": 1435,
			"woman": 1436,
			"cup": 1437,
			"might": 1438,
			"million": 1439,
			"land": 1440,
			"2000": 1441,
			"court": 1442,
			"development": 1443,
			"17": 1444,
			"short": 1445,
			"round": 1446,
			"ii": 1447,
			"km": 1448,
			"seen": 1449,
			"class": 1450,
			"story": 1451,
			"always": 1452,
			"become": 1453,
			"sure": 1454,
			"almost": 1455,
			"council": 1456,
			"la": 1457,
			"##2": 1458,
			"things": 1459,
			"using": 1460,
			"island": 1461,
			"##z": 1462,
			"couldn": 1463,
			"car": 1464,
			"##is": 1465,
			"24": 1466,
			"close": 1467,
			"force": 1468,
			"##1": 1469,
			"better": 1470,
			"free": 1471,
			"support": 1472,
			"control": 1473,
			"field": 1474,
			"2003": 1475,
			"married": 1476,
			"##b": 1477,
			"nothing": 1478,
			"worked": 1479,
			"others": 1480,
			"record": 1481,
			"big": 1482,
			"inside": 1483,
			"level": 1484,
			"anything": 1485,
			"continued": 1486,
			"give": 1487,
			"james": 1488,
			"##3": 1489,
			"non": 1490,
			"returned": 1491,
			"feel": 1492,
			"does": 1493,
			"title": 1494,
			"written": 1495,
			"thing": 1496,
			"feet": 1497,
			"william": 1498,
			"far": 1499,
			"co": 1500,
			"association": 1501,
			"hard": 1502,
			"already": 1503,
			"2002": 1504,
			"##ra": 1505,
			"human": 1506,
			"western": 1507,
			"100": 1508,
			"##na": 1509,
			"department": 1510,
			"hall": 1511,
			"role": 1512,
			"various": 1513,
			"production": 1514,
			"21": 1515,
			"19": 1516,
			"heart": 1517,
			"2001": 1518,
			"living": 1519,
			"fire": 1520,
			"version": 1521,
			"##ers": 1522,
			"##f": 1523,
			"royal": 1524,
			"##4": 1525,
			"produced": 1526,
			"working": 1527,
			"act": 1528,
			"case": 1529,
			"region": 1530,
			"present": 1531,
			"radio": 1532,
			"period": 1533,
			"looking": 1534,
			"least": 1535,
			"total": 1536,
			"keep": 1537,
			"england": 1538,
			"wife": 1539,
			"program": 1540,
			"per": 1541,
			"brother": 1542,
			"mind": 1543,
			"special": 1544,
			"22": 1545,
			"##le": 1546,
			"am": 1547,
			"works": 1548,
			"soon": 1549,
			"##6": 1550,
			"george": 1551,
			"services": 1552,
			"taken": 1553,
			"created": 1554,
			"##7": 1555,
			"further": 1556,
			"able": 1557,
			"reached": 1558,
			"david": 1559,
			"union": 1560,
			"joined": 1561,
			"upon": 1562,
			"done": 1563,
			"important": 1564,
			"information": 1565,
			"either": 1566,
			"##ic": 1567,
			"##x": 1568,
			"appeared": 1569,
			"position": 1570,
			"ground": 1571,
			"lead": 1572,
			"rock": 1573,
			"dark": 1574,
			"23": 1575,
			"board": 1576,
			"france": 1577,
			"hair": 1578,
			"course": 1579,
			"arms": 1580,
			"site": 1581,
			"police": 1582,
			"girl": 1583,
			"instead": 1584,
			"real": 1585,
			"sound": 1586,
			"##v": 1587,
			"words": 1588,
			"moment": 1589,
			"##te": 1590,
			"someone": 1591,
			"##8": 1592,
			"summer": 1593,
			"project": 1594,
			"announced": 1595,
			"san": 1596,
			"less": 1597,
			"wrote": 1598,
			"past": 1599,
			"followed": 1600,
			"##5": 1601,
			"blue": 1602,
			"founded": 1603,
			"al": 1604,
			"finally": 1605,
			"india": 1606,
			"taking": 1607,
			"america": 1608,
			"##ne": 1609,
			"design": 1610,
			"considered": 1611,
			"northern": 1612,
			"god": 1613,
			"stop": 1614,
			"battle": 1615,
			"toward": 1616,
			"european": 1617,
			"outside": 1618,
			"described": 1619,
			"track": 1620,
			"today": 1621,
			"playing": 1622,
			"language": 1623,
			"28": 1624,
			"call": 1625,
			"26": 1626,
			"heard": 1627,
			"professional": 1628,
			"low": 1629,
			"australia": 1630,
			"california": 1631,
			"win": 1632,
			"yet": 1633,
			"green": 1634,
			"##ie": 1635,
			"trying": 1636,
			"blood": 1637,
			"##ton": 1638,
			"southern": 1639,
			"science": 1640,
			"maybe": 1641,
			"everything": 1642,
			"match": 1643,
			"square": 1644,
			"27": 1645,
			"mouth": 1646,
			"video": 1647,
			"race": 1648,
			"leave": 1649,
			"above": 1650,
			"##9": 1651,
			"daughter": 1652,
			"points": 1653,
			"space": 1654,
			"museum": 1655,
			"change": 1656,
			"middle": 1657,
			"common": 1658,
			"##0": 1659,
			"move": 1660,
			"tv": 1661,
			"post": 1662,
			"##ta": 1663,
			"lake": 1664,
			"seven": 1665,
			"tried": 1666,
			"closed": 1667,
			"ten": 1668,
			"paul": 1669,
			"##th": 1670,
			"months": 1671,
			"start": 1672,
			"return": 1673,
			"canada": 1674,
			"person": 1675,
			"sea": 1676,
			"release": 1677,
			"similar": 1678,
			"modern": 1679,
			"brought": 1680,
			"rest": 1681,
			"hit": 1682,
			"formed": 1683,
			"mr": 1684,
			"##la": 1685,
			"floor": 1686,
			"event": 1687,
			"doing": 1688,
			"thomas": 1689,
			"robert": 1690,
			"care": 1691,
			"killed": 1692,
			"star": 1693,
			"week": 1694,
			"needed": 1695,
			"turn": 1696,
			"finished": 1697,
			"railway": 1698,
			"rather": 1699,
			"news": 1700,
			"health": 1701,
			"sent": 1702,
			"example": 1703,
			"ran": 1704,
			"term": 1705,
			"coming": 1706,
			"currently": 1707,
			"yes": 1708,
			"forces": 1709,
			"despite": 1710,
			"gold": 1711,
			"areas": 1712,
			"50": 1713,
			"stage": 1714,
			"fact": 1715,
			"29": 1716,
			"dead": 1717,
			"says": 1718,
			"popular": 1719,
			"originally": 1720,
			"germany": 1721,
			"probably": 1722,
			"developed": 1723,
			"result": 1724,
			"pulled": 1725,
			"friend": 1726,
			"stood": 1727,
			"money": 1728,
			"running": 1729,
			"mi": 1730,
			"signed": 1731,
			"word": 1732,
			"child": 1733,
			"eventually": 1734,
			"met": 1735,
			"tour": 1736,
			"average": 1737,
			"teams": 1738,
			"minutes": 1739,
			"current": 1740,
			"deep": 1741,
			"kind": 1742,
			"decided": 1743,
			"usually": 1744,
			"eastern": 1745,
			"seemed": 1746,
			"##ness": 1747,
			"bed": 1748,
			"added": 1749,
			"table": 1750,
			"indian": 1751,
			"private": 1752,
			"route": 1753,
			"available": 1754,
			"idea": 1755,
			"throughout": 1756,
			"centre": 1757,
			"addition": 1758,
			"style": 1759,
			"1994": 1760,
			"books": 1761,
			"eight": 1762,
			"construction": 1763,
			"press": 1764,
			"mean": 1765,
			"wall": 1766,
			"friends": 1767,
			"remained": 1768,
			"##ch": 1769,
			"##um": 1770,
			"oh": 1771,
			"chinese": 1772,
			"sometimes": 1773,
			"events": 1774,
			"possible": 1775,
			"australian": 1776,
			"type": 1777,
			"brown": 1778,
			"forward": 1779,
			"process": 1780,
			"food": 1781,
			"seat": 1782,
			"performance": 1783,
			"features": 1784,
			"character": 1785,
			"arts": 1786,
			"else": 1787,
			"lot": 1788,
			"strong": 1789,
			"russian": 1790,
			"range": 1791,
			"hours": 1792,
			"peter": 1793,
			"arm": 1794,
			"##da": 1795,
			"morning": 1796,
			"dr": 1797,
			"sold": 1798,
			"##ry": 1799,
			"quickly": 1800,
			"directed": 1801,
			"china": 1802,
			"##w": 1803,
			"31": 1804,
			"list": 1805,
			"##ma": 1806,
			"performed": 1807,
			"media": 1808,
			"uk": 1809,
			"players": 1810,
			"smile": 1811,
			"##rs": 1812,
			"myself": 1813,
			"40": 1814,
			"placed": 1815,
			"coach": 1816,
			"towards": 1817,
			"wouldn": 1818,
			"whole": 1819,
			"boy": 1820,
			"designed": 1821,
			"grand": 1822,
			"##el": 1823,
			"europe": 1824,
			"attack": 1825,
			"japanese": 1826,
			"##re": 1827,
			"##os": 1828,
			"cross": 1829,
			"getting": 1830,
			"alone": 1831,
			"action": 1832,
			"lower": 1833,
			"wide": 1834,
			"washington": 1835,
			"japan": 1836,
			"believe": 1837,
			"changed": 1838,
			"sister": 1839,
			"##ar": 1840,
			"hold": 1841,
			"gone": 1842,
			"sir": 1843,
			"ship": 1844,
			"##ka": 1845,
			"academy": 1846,
			"shot": 1847,
			"rights": 1848,
			"below": 1849,
			"base": 1850,
			"bad": 1851,
			"involved": 1852,
			"kept": 1853,
			"largest": 1854,
			"##ist": 1855,
			"bank": 1856,
			"future": 1857,
			"especially": 1858,
			"beginning": 1859,
			"mark": 1860,
			"movement": 1861,
			"section": 1862,
			"female": 1863,
			"magazine": 1864,
			"plan": 1865,
			"lord": 1866,
			"longer": 1867,
			"##ian": 1868,
			"sat": 1869,
			"hill": 1870,
			"actually": 1871,
			"energy": 1872,
			"model": 1873,
			"size": 1874,
			"thus": 1875,
			"completed": 1876,
			"includes": 1877,
			"captain": 1878,
			"##or": 1879,
			"fight": 1880,
			"featured": 1881,
			"richard": 1882,
			"bridge": 1883,
			"fourth": 1884,
			"officer": 1885,
			"stone": 1886,
			"hear": 1887,
			"##ism": 1888,
			"means": 1889,
			"groups": 1890,
			"management": 1891,
			"self": 1892,
			"lips": 1893,
			"entire": 1894,
			"leaving": 1895,
			"federal": 1896,
			"bit": 1897,
			"passed": 1898,
			"hot": 1899,
			"mary": 1900,
			"spent": 1901,
			"fine": 1902,
			"doesn": 1903,
			"##ling": 1904,
			"jack": 1905,
			"fall": 1906,
			"raised": 1907,
			"itself": 1908,
			"stay": 1909,
			"true": 1910,
			"sports": 1911,
			"replaced": 1912,
			"paris": 1913,
			"systems": 1914,
			"saint": 1915,
			"whose": 1916,
			"market": 1917,
			"parents": 1918,
			"spanish": 1919,
			"canadian": 1920,
			"earth": 1921,
			"##ity": 1922,
			"cut": 1923,
			"degree": 1924,
			"writing": 1925,
			"bay": 1926,
			"christian": 1927,
			"natural": 1928,
			"higher": 1929,
			"bill": 1930,
			"##as": 1931,
			"coast": 1932,
			"provided": 1933,
			"previous": 1934,
			"valley": 1935,
			"stopped": 1936,
			"onto": 1937,
			"parts": 1938,
			"conference": 1939,
			"queen": 1940,
			"interest": 1941,
			"saying": 1942,
			"allowed": 1943,
			"master": 1944,
			"earlier": 1945,
			"phone": 1946,
			"matter": 1947,
			"smith": 1948,
			"try": 1949,
			"happened": 1950,
			"moving": 1951,
			"los": 1952,
			"##ley": 1953,
			"breath": 1954,
			"nearly": 1955,
			"mid": 1956,
			"certain": 1957,
			"girls": 1958,
			"date": 1959,
			"italian": 1960,
			"african": 1961,
			"standing": 1962,
			"fell": 1963,
			"artist": 1964,
			"##ted": 1965,
			"shows": 1966,
			"deal": 1967,
			"mine": 1968,
			"##ng": 1969,
			"everyone": 1970,
			"provide": 1971,
			"collection": 1972,
			"##ville": 1973,
			"primary": 1974,
			"owned": 1975,
			"older": 1976,
			"via": 1977,
			"heavy": 1978,
			"1st": 1979,
			"makes": 1980,
			"##able": 1981,
			"attention": 1982,
			"anyone": 1983,
			"##ri": 1984,
			"stated": 1985,
			"length": 1986,
			"ended": 1987,
			"fingers": 1988,
			"command": 1989,
			"staff": 1990,
			"skin": 1991,
			"foreign": 1992,
			"opening": 1993,
			"okay": 1994,
			"medal": 1995,
			"kill": 1996,
			"sun": 1997,
			"cover": 1998,
			"job": 1999,
			"introduced": 2000,
			"chest": 2001,
			"hell": 2002,
			"feeling": 2003,
			"##ies": 2004,
			"success": 2005,
			"meet": 2006,
			"reason": 2007,
			"standard": 2008,
			"meeting": 2009,
			"trade": 2010,
			"source": 2011,
			"buildings": 2012,
			"##land": 2013,
			"rose": 2014,
			"goal": 2015,
			"##ur": 2016,
			"chapter": 2017,
			"native": 2018,
			"husband": 2019,
			"previously": 2020,
			"unit": 2021,
			"limited": 2022,
			"weeks": 2023,
			"producer": 2024,
			"operations": 2025,
			"mountain": 2026,
			"takes": 2027,
			"covered": 2028,
			"forced": 2029,
			"related": 2030,
			"roman": 2031,
			"complete": 2032,
			"successful": 2033,
			"key": 2034,
			"texas": 2035,
			"cold": 2036,
			"##ya": 2037,
			"channel": 2038,
			"traditional": 2039,
			"films": 2040,
			"dance": 2041,
			"clear": 2042,
			"approximately": 2043,
			"500": 2044,
			"nine": 2045,
			"van": 2046,
			"prince": 2047,
			"question": 2048,
			"active": 2049,
			"tracks": 2050,
			"ireland": 2051,
			"regional": 2052,
			"silver": 2053,
			"author": 2054,
			"personal": 2055,
			"sense": 2056,
			"operation": 2057,
			"##ine": 2058,
			"holding": 2059,
			"twenty": 2060,
			"additional": 2061,
			"speed": 2062,
			"hour": 2063,
			"edition": 2064,
			"regular": 2065,
			"places": 2066,
			"whom": 2067,
			"prior": 2068,
			"chicago": 2069,
			"read": 2070,
			"foundation": 2071,
			"view": 2072,
			"engine": 2073,
			"scored": 2074,
			"ask": 2075,
			"property": 2076,
			"ready": 2077,
			"immediately": 2078,
			"lady": 2079,
			"month": 2080,
			"listed": 2081,
			"contract": 2082,
			"##de": 2083,
			"themselves": 2084,
			"lines": 2085,
			"##ki": 2086,
			"navy": 2087,
			"writer": 2088,
			"meant": 2089,
			"##ts": 2090,
			"runs": 2091,
			"##ro": 2092,
			"practice": 2093,
			"glass": 2094,
			"required": 2095,
			"forest": 2096,
			"starting": 2097,
			"culture": 2098,
			"generally": 2099,
			"giving": 2100,
			"access": 2101,
			"test": 2102,
			"couple": 2103,
			"stand": 2104,
			"martin": 2105,
			"caught": 2106,
			"##less": 2107,
			"eye": 2108,
			"##ey": 2109,
			"thinking": 2110,
			"chair": 2111,
			"quite": 2112,
			"shoulder": 2113,
			"hope": 2114,
			"plays": 2115,
			"whether": 2116,
			"structure": 2117,
			"offered": 2118,
			"slowly": 2119,
			"pain": 2120,
			"ice": 2121,
			"direction": 2122,
			"##ion": 2123,
			"paper": 2124,
			"mission": 2125,
			"mostly": 2126,
			"200": 2127,
			"noted": 2128,
			"individual": 2129,
			"nature": 2130,
			"lives": 2131,
			"plant": 2132,
			"##ha": 2133,
			"helped": 2134,
			"except": 2135,
			"figure": 2136,
			"issue": 2137,
			"significant": 2138,
			"loss": 2139,
			"die": 2140,
			"gun": 2141,
			"ago": 2142,
			"highest": 2143,
			"1972": 2144,
			"##am": 2145,
			"male": 2146,
			"bring": 2147,
			"goals": 2148,
			"mexico": 2149,
			"problem": 2150,
			"distance": 2151,
			"commercial": 2152,
			"completely": 2153,
			"location": 2154,
			"famous": 2155,
			"drive": 2156,
			"neck": 2157,
			"surface": 2158,
			"caused": 2159,
			"italy": 2160,
			"understand": 2161,
			"greek": 2162,
			"wrong": 2163,
			"hotel": 2164,
			"comes": 2165,
			"appearance": 2166,
			"joseph": 2167,
			"double": 2168,
			"musical": 2169,
			"companies": 2170,
			"castle": 2171,
			"review": 2172,
			"assembly": 2173,
			"bass": 2174,
			"initially": 2175,
			"experience": 2176,
			"particular": 2177,
			"walk": 2178,
			"foot": 2179,
			"talking": 2180,
			"window": 2181,
			"dropped": 2182,
			"##ter": 2183,
			"miss": 2184,
			"baby": 2185,
			"boys": 2186,
			"break": 2187,
			"stars": 2188,
			"edge": 2189,
			"remember": 2190,
			"carried": 2191,
			"train": 2192,
			"stadium": 2193,
			"bar": 2194,
			"angeles": 2195,
			"evidence": 2196,
			"##ge": 2197,
			"becoming": 2198,
			"assistant": 2199,
			"upper": 2200,
			"step": 2201,
			"wing": 2202,
			"reach": 2203,
			"##ll": 2204,
			"numerous": 2205,
			"##se": 2206,
			"##st": 2207,
			"arrived": 2208,
			"##ation": 2209,
			"minute": 2210,
			"##nt": 2211,
			"sorry": 2212,
			"complex": 2213,
			"beautiful": 2214,
			"victory": 2215,
			"associated": 2216,
			"temple": 2217,
			"1973": 2218,
			"chance": 2219,
			"perhaps": 2220,
			"metal": 2221,
			"##son": 2222,
			"bishop": 2223,
			"##et": 2224,
			"lee": 2225,
			"particularly": 2226,
			"tree": 2227,
			"le": 2228,
			"contains": 2229,
			"empire": 2230,
			"##ce": 2231,
			"suddenly": 2232,
			"waiting": 2233,
			"trust": 2234,
			"recording": 2235,
			"##to": 2236,
			"happy": 2237,
			"terms": 2238,
			"camp": 2239,
			"champion": 2240,
			"pass": 2241,
			"zealand": 2242,
			"names": 2243,
			"2nd": 2244,
			"port": 2245,
			"ancient": 2246,
			"tom": 2247,
			"corner": 2248,
			"watch": 2249,
			"anti": 2250,
			"cause": 2251,
			"watched": 2252,
			"brothers": 2253,
			"45": 2254,
			"material": 2255,
			"changes": 2256,
			"simply": 2257,
			"louis": 2258,
			"fast": 2259,
			"##ting": 2260,
			"answer": 2261,
			"60": 2262,
			"1969": 2263,
			"stories": 2264,
			"straight": 2265,
			"create": 2266,
			"feature": 2267,
			"increased": 2268,
			"rate": 2269,
			"virginia": 2270,
			"el": 2271,
			"activities": 2272,
			"cultural": 2273,
			"overall": 2274,
			"winner": 2275,
			"basketball": 2276,
			"legs": 2277,
			"guard": 2278,
			"beyond": 2279,
			"cast": 2280,
			"doctor": 2281,
			"mm": 2282,
			"results": 2283,
			"remains": 2284,
			"cost": 2285,
			"effect": 2286,
			"winter": 2287,
			"##ble": 2288,
			"larger": 2289,
			"islands": 2290,
			"problems": 2291,
			"chairman": 2292,
			"grew": 2293,
			"isn": 2294,
			"pay": 2295,
			"failed": 2296,
			"selected": 2297,
			"hurt": 2298,
			"fort": 2299,
			"box": 2300,
			"majority": 2301,
			"35": 2302,
			"edward": 2303,
			"plans": 2304,
			"##ke": 2305,
			"##ni": 2306,
			"shown": 2307,
			"pretty": 2308,
			"irish": 2309,
			"directly": 2310,
			"scene": 2311,
			"likely": 2312,
			"allow": 2313,
			"spring": 2314,
			"##j": 2315,
			"junior": 2316,
			"matches": 2317,
			"looks": 2318,
			"mike": 2319,
			"houses": 2320,
			"##tion": 2321,
			"beach": 2322,
			"##ham": 2323,
			"##ive": 2324,
			"rules": 2325,
			"oil": 2326,
			"65": 2327,
			"florida": 2328,
			"expected": 2329,
			"nearby": 2330,
			"sam": 2331,
			"iii": 2332,
			"wait": 2333,
			"subsequently": 2334,
			"cell": 2335,
			"##do": 2336,
			"variety": 2337,
			"serving": 2338,
			"please": 2339,
			"poor": 2340,
			"joe": 2341,
			"pacific": 2342,
			"attempt": 2343,
			"wood": 2344,
			"piece": 2345,
			"prime": 2346,
			"##ca": 2347,
			"touch": 2348,
			"appears": 2349,
			"soldiers": 2350,
			"##men": 2351,
			"##ized": 2352,
			"pennsylvania": 2353,
			"closer": 2354,
			"fighting": 2355,
			"claimed": 2356,
			"score": 2357,
			"jones": 2358,
			"physical": 2359,
			"editor": 2360,
			"##ous": 2361,
			"filled": 2362,
			"specific": 2363,
			"sitting": 2364,
			"super": 2365,
			"mom": 2366,
			"##va": 2367,
			"therefore": 2368,
			"supported": 2369,
			"fear": 2370,
			"cases": 2371,
			"store": 2372,
			"meaning": 2373,
			"spain": 2374,
			"tower": 2375,
			"focus": 2376,
			"vice": 2377,
			"frank": 2378,
			"follow": 2379,
			"separate": 2380,
			"golden": 2381,
			"horse": 2382,
			"fifth": 2383,
			"remaining": 2384,
			"branch": 2385,
			"32": 2386,
			"presented": 2387,
			"##id": 2388,
			"uses": 2389,
			"secret": 2390,
			"forms": 2391,
			"##co": 2392,
			"baseball": 2393,
			"exactly": 2394,
			"##ck": 2395,
			"choice": 2396,
			"note": 2397,
			"discovered": 2398,
			"travel": 2399,
			"composed": 2400,
			"truth": 2401,
			"ball": 2402,
			"color": 2403,
			"kiss": 2404,
			"dad": 2405,
			"wind": 2406,
			"continue": 2407,
			"ring": 2408,
			"referred": 2409,
			"numbers": 2410,
			"digital": 2411,
			"greater": 2412,
			"##ns": 2413,
			"slightly": 2414,
			"direct": 2415,
			"increase": 2416,
			"responsible": 2417,
			"rule": 2418,
			"trees": 2419,
			"troops": 2420,
			"##no": 2421,
			"goes": 2422,
			"individuals": 2423,
			"hundred": 2424,
			"weight": 2425,
			"creek": 2426,
			"sleep": 2427,
			"memory": 2428,
			"provides": 2429,
			"ordered": 2430,
			"value": 2431,
			"jewish": 2432,
			"windows": 2433,
			"safe": 2434,
			"judge": 2435,
			"whatever": 2436,
			"realized": 2437,
			"growing": 2438,
			"pre": 2439,
			"##ga": 2440,
			"alexander": 2441,
			"lies": 2442,
			"spread": 2443,
			"scott": 2444,
			"letter": 2445,
			"transport": 2446,
			"watching": 2447,
			"workers": 2448,
			"extended": 2449,
			"##li": 2450,
			"expression": 2451,
			"normal": 2452,
			"##ment": 2453,
			"chart": 2454,
			"multiple": 2455,
			"border": 2456,
			"##ba": 2457,
			"##ner": 2458,
			"daily": 2459,
			"mrs": 2460,
			"walls": 2461,
			"piano": 2462,
			"##ko": 2463,
			"heat": 2464,
			"cannot": 2465,
			"##ate": 2466,
			"products": 2467,
			"drama": 2468,
			"era": 2469,
			"seasons": 2470,
			"join": 2471,
			"grade": 2472,
			"##io": 2473,
			"sign": 2474,
			"difficult": 2475,
			"machine": 2476,
			"territory": 2477,
			"mainly": 2478,
			"##wood": 2479,
			"stations": 2480,
			"iron": 2481,
			"##led": 2482,
			"serve": 2483,
			"appear": 2484,
			"sky": 2485,
			"speak": 2486,
			"broken": 2487,
			"charge": 2488,
			"removed": 2489,
			"ships": 2490,
			"article": 2491,
			"simple": 2492,
			"##ty": 2493,
			"pushed": 2494,
			"britain": 2495,
			"##ve": 2496,
			"leaves": 2497,
			"recently": 2498,
			"cd": 2499,
			"soft": 2500,
			"boston": 2501,
			"latter": 2502,
			"easy": 2503,
			"acquired": 2504,
			"##sa": 2505,
			"quality": 2506,
			"presence": 2507,
			"planned": 2508,
			"mass": 2509,
			"jean": 2510,
			"share": 2511,
			"image": 2512,
			"influence": 2513,
			"wild": 2514,
			"offer": 2515,
			"electric": 2516,
			"reading": 2517,
			"ability": 2518,
			"yellow": 2519,
			"1942": 2520,
			"throat": 2521,
			"smaller": 2522,
			"##by": 2523,
			"latin": 2524,
			"spoke": 2525,
			"cars": 2526,
			"williams": 2527,
			"lack": 2528,
			"pop": 2529,
			"80": 2530,
			"##ier": 2531,
			"acting": 2532,
			"seeing": 2533,
			"##ti": 2534,
			"estate": 2535,
			"1961": 2536,
			"pressure": 2537,
			"johnson": 2538,
			"newspaper": 2539,
			"jr": 2540,
			"online": 2541,
			"conditions": 2542,
			"beat": 2543,
			"elements": 2544,
			"walking": 2545,
			"##field": 2546,
			"needs": 2547,
			"carolina": 2548,
			"text": 2549,
			"block": 2550,
			"shirt": 2551,
			"levels": 2552,
			"francisco": 2553,
			"purpose": 2554,
			"et": 2555,
			"dutch": 2556,
			"duke": 2557,
			"ahead": 2558,
			"gas": 2559,
			"twice": 2560,
			"safety": 2561,
			"serious": 2562,
			"turning": 2563,
			"highly": 2564,
			"firm": 2565,
			"maria": 2566,
			"amount": 2567,
			"mixed": 2568,
			"daniel": 2569,
			"proposed": 2570,
			"perfect": 2571,
			"3rd": 2572,
			"seconds": 2573,
			"contemporary": 2574,
			"paid": 2575,
			"save": 2576,
			"kitchen": 2577,
			"label": 2578,
			"intended": 2579,
			"nice": 2580,
			"formerly": 2581,
			"ben": 2582,
			"shut": 2583,
			"drums": 2584,
			"victoria": 2585,
			"seems": 2586,
			"opera": 2587,
			"1959": 2588,
			"graduated": 2589,
			"function": 2590,
			"von": 2591,
			"mentioned": 2592,
			"picked": 2593,
			"build": 2594,
			"shortly": 2595,
			"protection": 2596,
			"picture": 2597,
			"exchange": 2598,
			"1980s": 2599,
			"loved": 2600,
			"percent": 2601,
			"fish": 2602,
			"elizabeth": 2603,
			"garden": 2604,
			"volume": 2605,
			"hockey": 2606,
			"beside": 2607,
			"settled": 2608,
			"##ford": 2609,
			"drew": 2610,
			"marine": 2611,
			"scotland": 2612,
			"steel": 2613,
			"farm": 2614,
			"steve": 2615,
			"risk": 2616,
			"magic": 2617,
			"singles": 2618,
			"effects": 2619,
			"gray": 2620,
			"screen": 2621,
			"dog": 2622,
			"##ja": 2623,
			"bus": 2624,
			"sides": 2625,
			"none": 2626,
			"secondary": 2627,
			"polish": 2628,
			"destroyed": 2629,
			"flying": 2630,
			"founder": 2631,
			"households": 2632,
			"lay": 2633,
			"reserve": 2634,
			"usa": 2635,
			"##ler": 2636,
			"industrial": 2637,
			"younger": 2638,
			"approach": 2639,
			"urban": 2640,
			"ones": 2641,
			"finish": 2642,
			"avenue": 2643,
			"powerful": 2644,
			"fully": 2645,
			"growth": 2646,
			"page": 2647,
			"honor": 2648,
			"jersey": 2649,
			"projects": 2650,
			"advanced": 2651,
			"revealed": 2652,
			"basic": 2653,
			"90": 2654,
			"pair": 2655,
			"equipment": 2656,
			"visit": 2657,
			"33": 2658,
			"evening": 2659,
			"search": 2660,
			"effort": 2661,
			"solo": 2662,
			"buried": 2663,
			"primarily": 2664,
			"bottom": 2665,
			"owner": 2666,
			"israel": 2667,
			"gives": 2668,
			"jim": 2669,
			"dream": 2670,
			"bob": 2671,
			"remain": 2672,
			"spot": 2673,
			"70": 2674,
			"notes": 2675,
			"produce": 2676,
			"contact": 2677,
			"ed": 2678,
			"soul": 2679,
			"accepted": 2680,
			"ways": 2681,
			"del": 2682,
			"##ally": 2683,
			"losing": 2684,
			"split": 2685,
			"price": 2686,
			"capacity": 2687,
			"basis": 2688,
			"trial": 2689,
			"##ina": 2690,
			"guess": 2691,
			"naval": 2692,
			"initial": 2693,
			"##ization": 2694,
			"##ful": 2695,
			"##go": 2696,
			"strength": 2697,
			"300": 2698,
			"tears": 2699,
			"00": 2700,
			"card": 2701,
			"asian": 2702,
			"agent": 2703,
			"44": 2704,
			"draw": 2705,
			"warm": 2706,
			"supposed": 2707,
			"com": 2708,
			"pro": 2709,
			"##il": 2710,
			"transferred": 2711,
			"##at": 2712,
			"escape": 2713,
			"asia": 2714,
			"potential": 2715,
			"activity": 2716,
			"entertainment": 2717,
			"seem": 2718,
			"jackson": 2719,
			"36": 2720,
			"slow": 2721,
			"product": 2722,
			"haven": 2723,
			"taught": 2724,
			"comedy": 2725,
			"unable": 2726,
			"planning": 2727,
			"albums": 2728,
			"rugby": 2729,
			"environment": 2730,
			"scientific": 2731,
			"protect": 2732,
			"##hi": 2733,
			"boat": 2734,
			"typically": 2735,
			"damage": 2736,
			"divided": 2737,
			"dedicated": 2738,
			"mount": 2739,
			"##berg": 2740,
			"pick": 2741,
			"fought": 2742,
			"##der": 2743,
			"empty": 2744,
			"shoulders": 2745,
			"sort": 2746,
			"thank": 2747,
			"account": 2748,
			"necessary": 2749,
			"follows": 2750,
			"alongside": 2751,
			"des": 2752,
			"simon": 2753,
			"suggested": 2754,
			"operating": 2755,
			"steps": 2756,
			"sweet": 2757,
			"technical": 2758,
			"begin": 2759,
			"easily": 2760,
			"34": 2761,
			"teeth": 2762,
			"speaking": 2763,
			"scale": 2764,
			"##sh": 2765,
			"ray": 2766,
			"max": 2767,
			"enemy": 2768,
			"semi": 2769,
			"joint": 2770,
			"compared": 2771,
			"##rd": 2772,
			"scottish": 2773,
			"analysis": 2774,
			"offers": 2775,
			"pieces": 2776,
			"captured": 2777,
			"animal": 2778,
			"guest": 2779,
			"organized": 2780,
			"##lin": 2781,
			"tony": 2782,
			"combined": 2783,
			"method": 2784,
			"challenge": 2785,
			"1960s": 2786,
			"huge": 2787,
			"wants": 2788,
			"sons": 2789,
			"rise": 2790,
			"crime": 2791,
			"types": 2792,
			"path": 2793,
			"platform": 2794,
			"sit": 2795,
			"##lo": 2796,
			"tells": 2797,
			"assigned": 2798,
			"rich": 2799,
			"pull": 2800,
			"##ot": 2801,
			"commonly": 2802,
			"alive": 2803,
			"##za": 2804,
			"letters": 2805,
			"conducted": 2806,
			"wearing": 2807,
			"happen": 2808,
			"bought": 2809,
			"becomes": 2810,
			"holy": 2811,
			"gets": 2812,
			"ocean": 2813,
			"purchased": 2814,
			"coffee": 2815,
			"titled": 2816,
			"##q": 2817,
			"applied": 2818,
			"concert": 2819,
			"sounds": 2820,
			"jazz": 2821,
			"brain": 2822,
			"##me": 2823,
			"painting": 2824,
			"nick": 2825,
			"##ius": 2826,
			"michigan": 2827,
			"count": 2828,
			"animals": 2829,
			"##line": 2830,
			"content": 2831,
			"##den": 2832,
			"##it": 2833,
			"clubs": 2834,
			"64": 2835,
			"critical": 2836,
			"fair": 2837,
			"leg": 2838,
			"returning": 2839,
			"surrounding": 2840,
			"formation": 2841,
			"lifted": 2842,
			"pointed": 2843,
			"connected": 2844,
			"rome": 2845,
			"laid": 2846,
			"taylor": 2847,
			"santa": 2848,
			"powers": 2849,
			"tall": 2850,
			"shared": 2851,
			"knowing": 2852,
			"yards": 2853,
			"entrance": 2854,
			"falls": 2855,
			"##wa": 2856,
			"calling": 2857,
			"##ad": 2858,
			"sources": 2859,
			"chosen": 2860,
			"beneath": 2861,
			"resources": 2862,
			"yard": 2863,
			"##ite": 2864,
			"zone": 2865,
			"defined": 2866,
			"##que": 2867,
			"thirty": 2868,
			"38": 2869,
			"bodies": 2870,
			"moon": 2871,
			"##ard": 2872,
			"adopted": 2873,
			"christmas": 2874,
			"widely": 2875,
			"register": 2876,
			"apart": 2877,
			"iran": 2878,
			"premier": 2879,
			"serves": 2880,
			"du": 2881,
			"parties": 2882,
			"##les": 2883,
			"generation": 2884,
			"##ff": 2885,
			"continues": 2886,
			"quick": 2887,
			"brigade": 2888,
			"quiet": 2889,
			"clothes": 2890,
			"impact": 2891,
			"partner": 2892,
			"flat": 2893,
			"supreme": 2894,
			"37": 2895,
			"##tor": 2896,
			"plants": 2897,
			"kids": 2898,
			"begins": 2899,
			"##age": 2900,
			"armed": 2901,
			"internet": 2902,
			"models": 2903,
			"worth": 2904,
			"laws": 2905,
			"400": 2906,
			"communities": 2907,
			"background": 2908,
			"knows": 2909,
			"thanks": 2910,
			"quarter": 2911,
			"reaching": 2912,
			"carry": 2913,
			"killing": 2914,
			"kong": 2915,
			"hong": 2916,
			"setting": 2917,
			"75": 2918,
			"railroad": 2919,
			"inc": 2920,
			"possibly": 2921,
			"wish": 2922,
			"arthur": 2923,
			"doors": 2924,
			"density": 2925,
			"##di": 2926,
			"crowd": 2927,
			"stomach": 2928,
			"tone": 2929,
			"unique": 2930,
			"anyway": 2931,
			"##ir": 2932,
			"liberal": 2933,
			"der": 2934,
			"thick": 2935,
			"dry": 2936,
			"faced": 2937,
			"largely": 2938,
			"theme": 2939,
			"holds": 2940,
			"creation": 2941,
			"strange": 2942,
			"##mi": 2943,
			"revolution": 2944,
			"bell": 2945,
			"turns": 2946,
			"silent": 2947,
			"combat": 2948,
			"shape": 2949,
			"write": 2950,
			"determined": 2951,
			"sales": 2952,
			"learned": 2953,
			"4th": 2954,
			"finger": 2955,
			"oxford": 2956,
			"providing": 2957,
			"heritage": 2958,
			"situated": 2959,
			"designated": 2960,
			"allowing": 2961,
			"distribution": 2962,
			"##est": 2963,
			"sight": 2964,
			"estimated": 2965,
			"reduced": 2966,
			"##ria": 2967,
			"keeping": 2968,
			"guys": 2969,
			"damn": 2970,
			"claim": 2971,
			"motion": 2972,
			"sport": 2973,
			"sixth": 2974,
			"##ze": 2975,
			"en": 2976,
			"rear": 2977,
			"receive": 2978,
			"handed": 2979,
			"twelve": 2980,
			"dress": 2981,
			"brazil": 2982,
			"##well": 2983,
			"spirit": 2984,
			"##ated": 2985,
			"etc": 2986,
			"representative": 2987,
			"tight": 2988,
			"trouble": 2989,
			"drink": 2990,
			"vampire": 2991,
			"missing": 2992,
			"newly": 2993,
			"household": 2994,
			"wave": 2995,
			"##ee": 2996,
			"phase": 2997,
			"massachusetts": 2998,
			"pilot": 2999,
			"unlike": 3000,
			"philadelphia": 3001,
			"bright": 3002,
			"crown": 3003,
			"roof": 3004,
			"42": 3005,
			"respectively": 3006,
			"clearly": 3007,
			"tongue": 3008,
			"marked": 3009,
			"circle": 3010,
			"fox": 3011,
			"bronze": 3012,
			"expanded": 3013,
			"supply": 3014,
			"yourself": 3015,
			"inspired": 3016,
			"fc": 3017,
			"##ah": 3018,
			"reference": 3019,
			"draft": 3020,
			"brand": 3021,
			"reasons": 3022,
			"classic": 3023,
			"trip": 3024,
			"jesus": 3025,
			"cells": 3026,
			"neither": 3027,
			"trail": 3028,
			"atlantic": 3029,
			"orders": 3030,
			"labor": 3031,
			"nose": 3032,
			"afraid": 3033,
			"identified": 3034,
			"calls": 3035,
			"cancer": 3036,
			"passing": 3037,
			"positions": 3038,
			"imperial": 3039,
			"grey": 3040,
			"jason": 3041,
			"39": 3042,
			"sunday": 3043,
			"48": 3044,
			"swedish": 3045,
			"avoid": 3046,
			"extra": 3047,
			"uncle": 3048,
			"message": 3049,
			"covers": 3050,
			"allows": 3051,
			"surprise": 3052,
			"materials": 3053,
			"fame": 3054,
			"hunter": 3055,
			"##ji": 3056,
			"figures": 3057,
			"davis": 3058,
			"confirmed": 3059,
			"shit": 3060,
			"di": 3061,
			"difference": 3062,
			"acts": 3063,
			"##ov": 3064,
			"existing": 3065,
			"opportunity": 3066,
			"nor": 3067,
			"shop": 3068,
			"entirely": 3069,
			"opposite": 3070,
			"##pa": 3071,
			"develop": 3072,
			"pressed": 3073,
			"##ish": 3074,
			"barely": 3075,
			"wine": 3076,
			"conversation": 3077,
			"northwest": 3078,
			"ends": 3079,
			"stock": 3080,
			"grace": 3081,
			"sets": 3082,
			"eat": 3083,
			"alternative": 3084,
			"##ps": 3085,
			"bag": 3086,
			"resulting": 3087,
			"creating": 3088,
			"surprised": 3089,
			"cemetery": 3090,
			"drop": 3091,
			"finding": 3092,
			"cricket": 3093,
			"tradition": 3094,
			"ride": 3095,
			"target": 3096,
			"ear": 3097,
			"explained": 3098,
			"rain": 3099,
			"apartment": 3100,
			"municipal": 3101,
			"occupied": 3102,
			"clean": 3103,
			"billion": 3104,
			"learn": 3105,
			"maximum": 3106,
			"classical": 3107,
			"lose": 3108,
			"jose": 3109,
			"bear": 3110,
			"core": 3111,
			"hills": 3112,
			"rolled": 3113,
			"ending": 3114,
			"drawn": 3115,
			"permanent": 3116,
			"fun": 3117,
			"##tes": 3118,
			"##lla": 3119,
			"sites": 3120,
			"chamber": 3121,
			"ryan": 3122,
			"##way": 3123,
			"scoring": 3124,
			"height": 3125,
			"##house": 3126,
			"staring": 3127,
			"55": 3128,
			"officials": 3129,
			"snow": 3130,
			"##tic": 3131,
			"orange": 3132,
			"##ger": 3133,
			"interior": 3134,
			"succeeded": 3135,
			"thousand": 3136,
			"dinner": 3137,
			"lights": 3138,
			"existence": 3139,
			"fans": 3140,
			"heavily": 3141,
			"41": 3142,
			"greatest": 3143,
			"conservative": 3144,
			"send": 3145,
			"bowl": 3146,
			"plus": 3147,
			"enter": 3148,
			"catch": 3149,
			"##un": 3150,
			"economy": 3151,
			"duty": 3152,
			"versions": 3153,
			"shall": 3154,
			"pictures": 3155,
			"effective": 3156,
			"remembered": 3157,
			"crossed": 3158,
			"starts": 3159,
			"sharp": 3160,
			"##ant": 3161,
			"ass": 3162,
			"weather": 3163,
			"falling": 3164,
			"fund": 3165,
			"supporting": 3166,
			"check": 3167,
			"adult": 3168,
			"heads": 3169,
			"cm": 3170,
			"southeast": 3171,
			"lane": 3172,
			"##burg": 3173,
			"application": 3174,
			"##ura": 3175,
			"les": 3176,
			"condition": 3177,
			"transfer": 3178,
			"prevent": 3179,
			"display": 3180,
			"ex": 3181,
			"regions": 3182,
			"earl": 3183,
			"cool": 3184,
			"relatively": 3185,
			"besides": 3186,
			"1928": 3187,
			"obtained": 3188,
			"portion": 3189,
			"##town": 3190,
			"mix": 3191,
			"##ding": 3192,
			"reaction": 3193,
			"liked": 3194,
			"dean": 3195,
			"express": 3196,
			"peak": 3197,
			"##tte": 3198,
			"counter": 3199,
			"chain": 3200,
			"rare": 3201,
			"miller": 3202,
			"aid": 3203,
			"lie": 3204,
			"perform": 3205,
			"wonder": 3206,
			"lying": 3207,
			"crazy": 3208,
			"sword": 3209,
			"##ping": 3210,
			"attempted": 3211,
			"centuries": 3212,
			"category": 3213,
			"##ize": 3214,
			"anna": 3215,
			"interested": 3216,
			"47": 3217,
			"wolf": 3218,
			"frequently": 3219,
			"abandoned": 3220,
			"kg": 3221,
			"task": 3222,
			"entitled": 3223,
			"##ay": 3224,
			"factory": 3225,
			"tiny": 3226,
			"soccer": 3227,
			"matt": 3228,
			"fm": 3229,
			"achieved": 3230,
			"52": 3231,
			"internal": 3232,
			"persian": 3233,
			"43": 3234,
			"methods": 3235,
			"##ging": 3236,
			"otherwise": 3237,
			"cambridge": 3238,
			"villages": 3239,
			"elementary": 3240,
			"rooms": 3241,
			"worry": 3242,
			"attempts": 3243,
			"waited": 3244,
			"signal": 3245,
			"bird": 3246,
			"subsequent": 3247,
			"##ol": 3248,
			"ad": 3249,
			"49": 3250,
			"details": 3251,
			"faith": 3252,
			"patrick": 3253,
			"carrying": 3254,
			"laugh": 3255,
			"##ss": 3256,
			"controlled": 3257,
			"korean": 3258,
			"showing": 3259,
			"origin": 3260,
			"fuel": 3261,
			"##ent": 3262,
			"brief": 3263,
			"darkness": 3264,
			"pool": 3265,
			"missed": 3266,
			"web": 3267,
			"ian": 3268,
			"anne": 3269,
			"wings": 3270,
			"##tt": 3271,
			"briefly": 3272,
			"standards": 3273,
			"##be": 3274,
			"ideas": 3275,
			"climate": 3276,
			"causing": 3277,
			"worse": 3278,
			"albert": 3279,
			"desire": 3280,
			"aged": 3281,
			"northeast": 3282,
			"dangerous": 3283,
			"gate": 3284,
			"doubt": 3285,
			"wooden": 3286,
			"multi": 3287,
			"##ky": 3288,
			"rising": 3289,
			"46": 3290,
			"prepared": 3291,
			"ford": 3292,
			"skills": 3293,
			"pulling": 3294,
			"electronic": 3295,
			"##ak": 3296,
			"##ial": 3297,
			"##han": 3298,
			"containing": 3299,
			"ultimately": 3300,
			"singing": 3301,
			"understanding": 3302,
			"restaurant": 3303,
			"tomorrow": 3304,
			"fashion": 3305,
			"christ": 3306,
			"ward": 3307,
			"da": 3308,
			"stands": 3309,
			"5th": 3310,
			"flow": 3311,
			"contained": 3312,
			"exist": 3313,
			"fresh": 3314,
			"americans": 3315,
			"##per": 3316,
			"approved": 3317,
			"kid": 3318,
			"suit": 3319,
			"angel": 3320,
			"asking": 3321,
			"increasing": 3322,
			"frame": 3323,
			"angry": 3324,
			"selling": 3325,
			"1950s": 3326,
			"thin": 3327,
			"finds": 3328,
			"##nd": 3329,
			"temperature": 3330,
			"statement": 3331,
			"ali": 3332,
			"explain": 3333,
			"narrow": 3334,
			"51": 3335,
			"jane": 3336,
			"flowers": 3337,
			"promise": 3338,
			"somewhere": 3339,
			"object": 3340,
			"fly": 3341,
			"closely": 3342,
			"##ls": 3343,
			"cape": 3344,
			"weekly": 3345,
			"##ai": 3346,
			"##au": 3347,
			"##ny": 3348,
			"978": 3349,
			"##ring": 3350,
			"strike": 3351,
			"un": 3352,
			"roll": 3353,
			"landing": 3354,
			"chose": 3355,
			"anymore": 3356,
			"pp": 3357,
			"##ut": 3358,
			"fit": 3359,
			"dan": 3360,
			"receiving": 3361,
			"breaking": 3362,
			"dave": 3363,
			"admitted": 3364,
			"mexican": 3365,
			"##bury": 3366,
			"specifically": 3367,
			"hole": 3368,
			"iv": 3369,
			"credit": 3370,
			"moscow": 3371,
			"accident": 3372,
			"proved": 3373,
			"wear": 3374,
			"hey": 3375,
			"stuff": 3376,
			"slid": 3377,
			"expansion": 3378,
			"cat": 3379,
			"##kin": 3380,
			"opposed": 3381,
			"sub": 3382,
			"southwest": 3383,
			"plane": 3384,
			"##ron": 3385,
			"map": 3386,
			"tank": 3387,
			"listen": 3388,
			"regarding": 3389,
			"wet": 3390,
			"introduction": 3391,
			"link": 3392,
			"ep": 3393,
			"inch": 3394,
			"grown": 3395,
			"anger": 3396,
			"fixed": 3397,
			"buy": 3398,
			"khan": 3399,
			"domestic": 3400,
			"mill": 3401,
			"examples": 3402,
			"##head": 3403,
			"developing": 3404,
			"turkey": 3405,
			"hits": 3406,
			"pocket": 3407,
			"papers": 3408,
			"grow": 3409,
			"unless": 3410,
			"concerned": 3411,
			"attached": 3412,
			"selection": 3413,
			"journey": 3414,
			"converted": 3415,
			"painted": 3416,
			"aren": 3417,
			"bands": 3418,
			"aside": 3419,
			"lap": 3420,
			"ma": 3421,
			"##ow": 3422,
			"noise": 3423,
			"##ium": 3424,
			"guide": 3425,
			"resistance": 3426,
			"motor": 3427,
			"homes": 3428,
			"giant": 3429,
			"##mer": 3430,
			"150": 3431,
			"equal": 3432,
			"comic": 3433,
			"hidden": 3434,
			"solid": 3435,
			"actual": 3436,
			"bringing": 3437,
			"afternoon": 3438,
			"touched": 3439,
			"wedding": 3440,
			"marie": 3441,
			"canal": 3442,
			"sr": 3443,
			"kim": 3444,
			"turkish": 3445,
			"broad": 3446,
			"knees": 3447,
			"shaped": 3448,
			"fired": 3449,
			"norwegian": 3450,
			"handle": 3451,
			"cheek": 3452,
			"contest": 3453,
			"represent": 3454,
			"##pe": 3455,
			"representing": 3456,
			"beauty": 3457,
			"##sen": 3458,
			"birds": 3459,
			"advantage": 3460,
			"emergency": 3461,
			"wrapped": 3462,
			"drawing": 3463,
			"notice": 3464,
			"pink": 3465,
			"##ong": 3466,
			"somehow": 3467,
			"bachelor": 3468,
			"seventh": 3469,
			"collected": 3470,
			"registered": 3471,
			"chemical": 3472,
			"roger": 3473,
			"portuguese": 3474,
			"tied": 3475,
			"device": 3476,
			"progress": 3477,
			"advance": 3478,
			"##ised": 3479,
			"teachers": 3480,
			"forever": 3481,
			"##bo": 3482,
			"tennis": 3483,
			"helping": 3484,
			"sale": 3485,
			"junction": 3486,
			"hip": 3487,
			"incorporated": 3488,
			"dressed": 3489,
			"##ds": 3490,
			"influenced": 3491,
			"hers": 3492,
			"visual": 3493,
			"inner": 3494,
			"kansas": 3495,
			"hung": 3496,
			"gain": 3497,
			"downtown": 3498,
			"clock": 3499,
			"certainly": 3500,
			"pale": 3501,
			"protected": 3502,
			"plate": 3503,
			"putting": 3504,
			"surrounded": 3505,
			"##ists": 3506,
			"finishing": 3507,
			"tropical": 3508,
			"##ries": 3509,
			"consider": 3510,
			"philippines": 3511,
			"accept": 3512,
			"54": 3513,
			"concern": 3514,
			"anderson": 3515,
			"properties": 3516,
			"gordon": 3517,
			"successfully": 3518,
			"vietnam": 3519,
			"##dy": 3520,
			"backing": 3521,
			"outstanding": 3522,
			"muslim": 3523,
			"crossing": 3524,
			"folk": 3525,
			"producing": 3526,
			"usual": 3527,
			"demand": 3528,
			"occurs": 3529,
			"observed": 3530,
			"##ana": 3531,
			"kelly": 3532,
			"string": 3533,
			"pleasure": 3534,
			"budget": 3535,
			"items": 3536,
			"quietly": 3537,
			"colorado": 3538,
			"typical": 3539,
			"##worth": 3540,
			"derived": 3541,
			"600": 3542,
			"##ide": 3543,
			"56": 3544,
			"jake": 3545,
			"jews": 3546,
			"ltd": 3547,
			"sri": 3548,
			"extremely": 3549,
			"53": 3550,
			"loud": 3551,
			"thousands": 3552,
			"worried": 3553,
			"shadow": 3554,
			"transportation": 3555,
			"weapon": 3556,
			"importance": 3557,
			"tim": 3558,
			"objects": 3559,
			"dragon": 3560,
			"douglas": 3561,
			"aware": 3562,
			"johnny": 3563,
			"jordan": 3564,
			"flag": 3565,
			"samuel": 3566,
			"shock": 3567,
			"capable": 3568,
			"clark": 3569,
			"row": 3570,
			"wheel": 3571,
			"refers": 3572,
			"session": 3573,
			"familiar": 3574,
			"biggest": 3575,
			"hate": 3576,
			"request": 3577,
			"expressed": 3578,
			"injured": 3579,
			"underground": 3580,
			"walker": 3581,
			"tunnel": 3582,
			"passes": 3583,
			"stupid": 3584,
			"softly": 3585,
			"cabinet": 3586,
			"joining": 3587,
			"##ea": 3588,
			"##ms": 3589,
			"push": 3590,
			"dates": 3591,
			"spend": 3592,
			"woods": 3593,
			"protein": 3594,
			"gently": 3595,
			"chase": 3596,
			"morgan": 3597,
			"mention": 3598,
			"burning": 3599,
			"wake": 3600,
			"combination": 3601,
			"occur": 3602,
			"mirror": 3603,
			"leads": 3604,
			"jimmy": 3605,
			"indeed": 3606,
			"impossible": 3607,
			"singapore": 3608,
			"paintings": 3609,
			"covering": 3610,
			"##nes": 3611,
			"soldier": 3612,
			"locations": 3613,
			"sell": 3614,
			"wisconsin": 3615,
			"changing": 3616,
			"##don": 3617,
			"experienced": 3618,
			"inches": 3619,
			"##ku": 3620,
			"vol": 3621,
			"grounds": 3622,
			"switzerland": 3623,
			"##gan": 3624,
			"reform": 3625,
			"rolling": 3626,
			"ha": 3627,
			"forget": 3628,
			"massive": 3629,
			"burned": 3630,
			"tennessee": 3631,
			"locked": 3632,
			"values": 3633,
			"improved": 3634,
			"##mo": 3635,
			"sick": 3636,
			"facing": 3637,
			"pack": 3638,
			"purchase": 3639,
			"##pur": 3640,
			"moments": 3641,
			"##ul": 3642,
			"coal": 3643,
			"brick": 3644,
			"causes": 3645,
			"stores": 3646,
			"promote": 3647,
			"views": 3648,
			"cards": 3649,
			"referee": 3650,
			"extension": 3651,
			"##si": 3652,
			"raise": 3653,
			"arizona": 3654,
			"improve": 3655,
			"colonial": 3656,
			"formal": 3657,
			"##rt": 3658,
			"palm": 3659,
			"lucky": 3660,
			"hide": 3661,
			"rescue": 3662,
			"faces": 3663,
			"95": 3664,
			"feelings": 3665,
			"##ell": 3666,
			"goods": 3667,
			"6th": 3668,
			"courses": 3669,
			"59": 3670,
			"luke": 3671,
			"cash": 3672,
			"fallen": 3673,
			"##om": 3674,
			"affected": 3675,
			"carefully": 3676,
			"tries": 3677,
			"swiss": 3678,
			"hollywood": 3679,
			"costs": 3680,
			"##he": 3681,
			"shore": 3682,
			"file": 3683,
			"proper": 3684,
			"normally": 3685,
			"maryland": 3686,
			"jump": 3687,
			"constant": 3688,
			"offering": 3689,
			"friendly": 3690,
			"waters": 3691,
			"persons": 3692,
			"realize": 3693,
			"contain": 3694,
			"trophy": 3695,
			"800": 3696,
			"factor": 3697,
			"58": 3698,
			"bound": 3699,
			"oregon": 3700,
			"indicated": 3701,
			"hero": 3702,
			"medium": 3703,
			"##ure": 3704,
			"consisting": 3705,
			"somewhat": 3706,
			"##ara": 3707,
			"57": 3708,
			"cycle": 3709,
			"##che": 3710,
			"beer": 3711,
			"frederick": 3712,
			"gotten": 3713,
			"eleven": 3714,
			"worst": 3715,
			"weak": 3716,
			"arranged": 3717,
			"chin": 3718,
			"universal": 3719,
			"bond": 3720,
			"fifteen": 3721,
			"pattern": 3722,
			"disappeared": 3723,
			"##ney": 3724,
			"##zed": 3725,
			"lip": 3726,
			"capture": 3727,
			"##chi": 3728,
			"shifted": 3729,
			"cave": 3730,
			"warning": 3731,
			"sections": 3732,
			"coat": 3733,
			"smell": 3734,
			"feed": 3735,
			"golf": 3736,
			"favorite": 3737,
			"maintain": 3738,
			"knife": 3739,
			"vs": 3740,
			"voted": 3741,
			"degrees": 3742,
			"opinion": 3743,
			"manner": 3744,
			"operate": 3745,
			"choose": 3746,
			"discovery": 3747,
			"confused": 3748,
			"tired": 3749,
			"separated": 3750,
			"stream": 3751,
			"techniques": 3752,
			"attend": 3753,
			"kings": 3754,
			"throw": 3755,
			"measure": 3756,
			"fan": 3757,
			"sand": 3758,
			"danger": 3759,
			"salt": 3760,
			"calm": 3761,
			"decade": 3762,
			"dam": 3763,
			"require": 3764,
			"runner": 3765,
			"##ik": 3766,
			"rush": 3767,
			"associate": 3768,
			"greece": 3769,
			"##ker": 3770,
			"consecutive": 3771,
			"matthew": 3772,
			"##ski": 3773,
			"sq": 3774,
			"steam": 3775,
			"closing": 3776,
			"tie": 3777,
			"##ini": 3778,
			"distributed": 3779,
			"bruce": 3780,
			"7th": 3781,
			"breathing": 3782,
			"mad": 3783,
			"lit": 3784,
			"taste": 3785,
			"08": 3786,
			"composition": 3787,
			"shaking": 3788,
			"faster": 3789,
			"adjacent": 3790,
			"twin": 3791,
			"##ran": 3792,
			"tokyo": 3793,
			"##tone": 3794,
			"obviously": 3795,
			"ridge": 3796,
			"storage": 3797,
			"carl": 3798,
			"pages": 3799,
			"concluded": 3800,
			"desert": 3801,
			"driven": 3802,
			"ages": 3803,
			"sequence": 3804,
			"250": 3805,
			"creative": 3806,
			"cousin": 3807,
			"dreams": 3808,
			"margaret": 3809,
			"notably": 3810,
			"reduce": 3811,
			"montreal": 3812,
			"mode": 3813,
			"ears": 3814,
			"saved": 3815,
			"jan": 3816,
			"##ica": 3817,
			"##jo": 3818,
			"roughly": 3819,
			"##ise": 3820,
			"meanwhile": 3821,
			"compete": 3822,
			"repeated": 3823,
			"grass": 3824,
			"regularly": 3825,
			"charges": 3826,
			"tea": 3827,
			"sudden": 3828,
			"appeal": 3829,
			"##ung": 3830,
			"solution": 3831,
			"describes": 3832,
			"pierre": 3833,
			"glad": 3834,
			"##ning": 3835,
			"belt": 3836,
			"99": 3837,
			"add": 3838,
			"hungarian": 3839,
			"damaged": 3840,
			"gift": 3841,
			"85": 3842,
			"fifty": 3843,
			"##red": 3844,
			"jumped": 3845,
			"letting": 3846,
			"mph": 3847,
			"##ux": 3848,
			"##gh": 3849,
			"testing": 3850,
			"##hip": 3851,
			"hundreds": 3852,
			"shoot": 3853,
			"matters": 3854,
			"smoke": 3855,
			"israeli": 3856,
			"kentucky": 3857,
			"dancing": 3858,
			"grandfather": 3859,
			"emma": 3860,
			"designs": 3861,
			"profit": 3862,
			"argentina": 3863,
			"##gs": 3864,
			"truly": 3865,
			"li": 3866,
			"cole": 3867,
			"begun": 3868,
			"branches": 3869,
			"smiling": 3870,
			"decide": 3871,
			"miami": 3872,
			"enjoyed": 3873,
			"##dale": 3874,
			"ethnic": 3875,
			"gay": 3876,
			"##bi": 3877,
			"arabic": 3878,
			"09": 3879,
			"accompanied": 3880,
			"##one": 3881,
			"##ons": 3882,
			"fishing": 3883,
			"determine": 3884,
			"acid": 3885,
			"##ary": 3886,
			"returns": 3887,
			"mail": 3888,
			"##ang": 3889,
			"jonathan": 3890,
			"##ue": 3891,
			"net": 3892,
			"forty": 3893,
			"cook": 3894,
			"equivalent": 3895,
			"distinct": 3896,
			"ill": 3897,
			"##cy": 3898,
			"seriously": 3899,
			"##ors": 3900,
			"##ped": 3901,
			"shift": 3902,
			"harris": 3903,
			"replace": 3904,
			"rio": 3905,
			"imagine": 3906,
			"formula": 3907,
			"ensure": 3908,
			"##ber": 3909,
			"additionally": 3910,
			"occasionally": 3911,
			"purposes": 3912,
			"feels": 3913,
			"favor": 3914,
			"##and": 3915,
			"##ore": 3916,
			"contrast": 3917,
			"hanging": 3918,
			"hunt": 3919,
			"danish": 3920,
			"christopher": 3921,
			"busy": 3922,
			"sugar": 3923,
			"earliest": 3924,
			"balance": 3925,
			"##ks": 3926,
			"belgium": 3927,
			"slipped": 3928,
			"05": 3929,
			"visible": 3930,
			"stages": 3931,
			"##im": 3932,
			"forming": 3933,
			"07": 3934,
			"continuing": 3935,
			"counties": 3936,
			"bathroom": 3937,
			"option": 3938,
			"tail": 3939,
			"clay": 3940,
			"afterwards": 3941,
			"jaw": 3942,
			"##ded": 3943,
			"devices": 3944,
			"aviation": 3945,
			"russell": 3946,
			"kate": 3947,
			"##vi": 3948,
			"entering": 3949,
			"##ino": 3950,
			"temporary": 3951,
			"swimming": 3952,
			"forth": 3953,
			"smooth": 3954,
			"ghost": 3955,
			"bush": 3956,
			"rocks": 3957,
			"movements": 3958,
			"signs": 3959,
			"##tz": 3960,
			"ann": 3961,
			"06": 3962,
			"pure": 3963,
			"measures": 3964,
			"66": 3965,
			"16th": 3966,
			"indicate": 3967,
			"benefit": 3968,
			"flesh": 3969,
			"dublin": 3970,
			"louisiana": 3971,
			"1901": 3972,
			"patient": 3973,
			"coastal": 3974,
			"medieval": 3975,
			"wanting": 3976,
			"element": 3977,
			"rice": 3978,
			"62": 3979,
			"limit": 3980,
			"rating": 3981,
			"definitely": 3982,
			"obvious": 3983,
			"##tan": 3984,
			"boss": 3985,
			"ms": 3986,
			"baron": 3987,
			"birthday": 3988,
			"linked": 3989,
			"soil": 3990,
			"##lan": 3991,
			"##mann": 3992,
			"shell": 3993,
			"shouldn": 3994,
			"waist": 3995,
			"plain": 3996,
			"ross": 3997,
			"adding": 3998,
			"relative": 3999,
			"kennedy": 4000,
			"98": 4001,
			"whilst": 4002,
			"72": 4003,
			"heading": 4004,
			"moves": 4005,
			"##zi": 4006,
			"##out": 4007,
			"depending": 4008,
			"bottle": 4009,
			"represents": 4010,
			"responded": 4011,
			"04": 4012,
			"lock": 4013,
			"##ating": 4014,
			"treated": 4015,
			"graham": 4016,
			"talent": 4017,
			"drugs": 4018,
			"secure": 4019,
			"tests": 4020,
			"photography": 4021,
			"##gi": 4022,
			"designer": 4023,
			"disc": 4024,
			"grin": 4025,
			"seattle": 4026,
			"robin": 4027,
			"unusual": 4028,
			"##gate": 4029,
			"las": 4030,
			"laughing": 4031,
			"interesting": 4032,
			"factors": 4033,
			"deck": 4034,
			"##water": 4035,
			"stuck": 4036,
			"domain": 4037,
			"##her": 4038,
			"01": 4039,
			"reputation": 4040,
			"eliminated": 4041,
			"8th": 4042,
			"ceiling": 4043,
			"script": 4044,
			"##nce": 4045,
			"leather": 4046,
			"mississippi": 4047,
			"rapidly": 4048,
			"parallel": 4049,
			"charlotte": 4050,
			"tools": 4051,
			"divisions": 4052,
			"fruit": 4053,
			"##bs": 4054,
			"marry": 4055,
			"rapid": 4056,
			"aunt": 4057,
			"requirements": 4058,
			"amongst": 4059,
			"adams": 4060,
			"bone": 4061,
			"kick": 4062,
			"sees": 4063,
			"clothing": 4064,
			"column": 4065,
			"rough": 4066,
			"gods": 4067,
			"broadway": 4068,
			"gathered": 4069,
			"concerns": 4070,
			"##ek": 4071,
			"spending": 4072,
			"ty": 4073,
			"snapped": 4074,
			"requires": 4075,
			"solar": 4076,
			"bones": 4077,
			"##tta": 4078,
			"drinking": 4079,
			"waste": 4080,
			"index": 4081,
			"franklin": 4082,
			"thompson": 4083,
			"tip": 4084,
			"flash": 4085,
			"landscape": 4086,
			"friday": 4087,
			"enjoy": 4088,
			"singh": 4089,
			"listening": 4090,
			"##back": 4091,
			"eighth": 4092,
			"fred": 4093,
			"differences": 4094,
			"adapted": 4095,
			"bomb": 4096,
			"ukrainian": 4097,
			"anywhere": 4098,
			"##more": 4099,
			"waves": 4100,
			"odd": 4101,
			"sean": 4102,
			"portugal": 4103,
			"orleans": 4104,
			"dick": 4105,
			"debate": 4106,
			"kent": 4107,
			"eating": 4108,
			"puerto": 4109,
			"cleared": 4110,
			"96": 4111,
			"expect": 4112,
			"97": 4113,
			"blocks": 4114,
			"electrical": 4115,
			"agree": 4116,
			"depth": 4117,
			"panel": 4118,
			"struggle": 4119,
			"##ged": 4120,
			"peninsula": 4121,
			"adults": 4122,
			"emerged": 4123,
			"vienna": 4124,
			"metro": 4125,
			"shoes": 4126,
			"meets": 4127,
			"prove": 4128,
			"beating": 4129,
			"instance": 4130,
			"heaven": 4131,
			"scared": 4132,
			"marks": 4133,
			"artistic": 4134,
			"passage": 4135,
			"superior": 4136,
			"03": 4137,
			"significantly": 4138,
			"shopping": 4139,
			"##tive": 4140,
			"retained": 4141,
			"##izing": 4142,
			"technique": 4143,
			"cheeks": 4144,
			"##ola": 4145,
			"destroy": 4146,
			"extreme": 4147,
			"120": 4148,
			"appearing": 4149,
			"##yn": 4150,
			"fill": 4151,
			"advice": 4152,
			"hat": 4153,
			"battery": 4154,
			"smart": 4155,
			"authors": 4156,
			"10th": 4157,
			"lb": 4158,
			"equipped": 4159,
			"funny": 4160,
			"outer": 4161,
			"ambassador": 4162,
			"roy": 4163,
			"possibility": 4164,
			"campbell": 4165,
			"loose": 4166,
			"supplies": 4167,
			"gonna": 4168,
			"88": 4169,
			"monster": 4170,
			"##res": 4171,
			"shake": 4172,
			"agents": 4173,
			"springs": 4174,
			"dogs": 4175,
			"practices": 4176,
			"61": 4177,
			"gang": 4178,
			"plastic": 4179,
			"easier": 4180,
			"suggests": 4181,
			"gulf": 4182,
			"blade": 4183,
			"exposed": 4184,
			"colors": 4185,
			"markets": 4186,
			"pan": 4187,
			"nervous": 4188,
			"mac": 4189,
			"shield": 4190,
			"copy": 4191,
			"throne": 4192,
			"jay": 4193,
			"93": 4194,
			"replacement": 4195,
			"cloud": 4196,
			"powered": 4197,
			"oak": 4198,
			"strongly": 4199,
			"colour": 4200,
			"crystal": 4201,
			"welsh": 4202,
			"gabriel": 4203,
			"jerry": 4204,
			"##cing": 4205,
			"forehead": 4206,
			"##ens": 4207,
			"manage": 4208,
			"schedule": 4209,
			"totally": 4210,
			"remix": 4211,
			"##ii": 4212,
			"print": 4213,
			"brazilian": 4214,
			"76": 4215,
			"roots": 4216,
			"seek": 4217,
			"correct": 4218,
			"und": 4219,
			"backed": 4220,
			"hop": 4221,
			"##des": 4222,
			"stanley": 4223,
			"traveled": 4224,
			"wayne": 4225,
			"welcome": 4226,
			"austrian": 4227,
			"achieve": 4228,
			"67": 4229,
			"rates": 4230,
			"strip": 4231,
			"whereas": 4232,
			"##cs": 4233,
			"sing": 4234,
			"deeply": 4235,
			"adventure": 4236,
			"bobby": 4237,
			"rick": 4238,
			"careful": 4239,
			"components": 4240,
			"cap": 4241,
			"useful": 4242,
			"personality": 4243,
			"knee": 4244,
			"##shi": 4245,
			"pushing": 4246,
			"hosts": 4247,
			"02": 4248,
			"ca": 4249,
			"ottoman": 4250,
			"##sis": 4251,
			"63": 4252,
			"1890": 4253,
			"processes": 4254,
			"considerable": 4255,
			"tons": 4256,
			"##work": 4257,
			"##ft": 4258,
			"##nia": 4259,
			"cooper": 4260,
			"trading": 4261,
			"dear": 4262,
			"conduct": 4263,
			"91": 4264,
			"apple": 4265,
			"holiday": 4266,
			"definition": 4267,
			"harder": 4268,
			"##van": 4269,
			"jacob": 4270,
			"circumstances": 4271,
			"##lle": 4272,
			"grip": 4273,
			"baltimore": 4274,
			"flows": 4275,
			"approval": 4276,
			"92": 4277,
			"mechanical": 4278,
			"till": 4279,
			"happening": 4280,
			"increasingly": 4281,
			"immediate": 4282,
			"describe": 4283,
			"stare": 4284,
			"##ster": 4285,
			"meat": 4286,
			"rounds": 4287,
			"boats": 4288,
			"baker": 4289,
			"orthodox": 4290,
			"depression": 4291,
			"naked": 4292,
			"claire": 4293,
			"77": 4294,
			"wished": 4295,
			"vessel": 4296,
			"bent": 4297,
			"virgin": 4298,
			"parker": 4299,
			"minimum": 4300,
			"murray": 4301,
			"lunch": 4302,
			"printed": 4303,
			"blow": 4304,
			"68": 4305,
			"raising": 4306,
			"78": 4307,
			"cutting": 4308,
			"##board": 4309,
			"##up": 4310,
			"81": 4311,
			"indigenous": 4312,
			"jon": 4313,
			"barry": 4314,
			"ah": 4315,
			"##zer": 4316,
			"##gy": 4317,
			"stick": 4318,
			"spell": 4319,
			"romantic": 4320,
			"##ver": 4321,
			"ye": 4322,
			"photo": 4323,
			"demanded": 4324,
			"customers": 4325,
			"##ac": 4326,
			"logan": 4327,
			"keys": 4328,
			"modified": 4329,
			"jeans": 4330,
			"##ious": 4331,
			"upset": 4332,
			"raw": 4333,
			"phil": 4334,
			"hiding": 4335,
			"##bly": 4336,
			"diamond": 4337,
			"coverage": 4338,
			"lucas": 4339,
			"external": 4340,
			"il": 4341,
			"lift": 4342,
			"profile": 4343,
			"romania": 4344,
			"##ied": 4345,
			"mills": 4346,
			"##su": 4347,
			"nobody": 4348,
			"fault": 4349,
			"rhythm": 4350,
			"breakfast": 4351,
			"carbon": 4352,
			"700": 4353,
			"69": 4354,
			"violent": 4355,
			"74": 4356,
			"ken": 4357,
			"killer": 4358,
			"gradually": 4359,
			"filmed": 4360,
			"°c": 4361,
			"dollars": 4362,
			"processing": 4363,
			"94": 4364,
			"remove": 4365,
			"guests": 4366,
			"sang": 4367,
			"##vin": 4368,
			"disney": 4369,
			"##bridge": 4370,
			"uniform": 4371,
			"escaped": 4372,
			"integrated": 4373,
			"purple": 4374,
			"liquid": 4375,
			"morris": 4376,
			"nights": 4377,
			"stones": 4378,
			"intense": 4379,
			"twisted": 4380,
			"71": 4381,
			"84": 4382,
			"##ld": 4383,
			"pace": 4384,
			"ny": 4385,
			"blind": 4386,
			"newspapers": 4387,
			"centers": 4388,
			"burn": 4389,
			"basin": 4390,
			"forgotten": 4391,
			"collections": 4392,
			"losses": 4393,
			"manual": 4394,
			"couch": 4395,
			"description": 4396,
			"appropriate": 4397,
			"merely": 4398,
			"tag": 4399,
			"replacing": 4400,
			"triple": 4401,
			"73": 4402,
			"elder": 4403,
			"julia": 4404,
			"convinced": 4405,
			"stronger": 4406,
			"amazing": 4407,
			"versus": 4408,
			"merchant": 4409,
			"happens": 4410,
			"finland": 4411,
			"bare": 4412,
			"barbara": 4413,
			"producers": 4414,
			"##ram": 4415,
			"82": 4416,
			"kw": 4417,
			"expensive": 4418,
			"exception": 4419,
			"symbol": 4420,
			"##ving": 4421,
			"ladies": 4422,
			"shower": 4423,
			"##je": 4424,
			"button": 4425,
			"ratio": 4426,
			"effectively": 4427,
			"angle": 4428,
			"bears": 4429,
			"foster": 4430,
			"vessels": 4431,
			"pants": 4432,
			"evans": 4433,
			"dozen": 4434,
			"competitions": 4435,
			"89": 4436,
			"rob": 4437,
			"##sm": 4438,
			"creature": 4439,
			"longest": 4440,
			"##tra": 4441,
			"harbor": 4442,
			"dust": 4443,
			"##so": 4444,
			"milk": 4445,
			"completion": 4446,
			"thailand": 4447,
			"indians": 4448,
			"leon": 4449,
			"##sy": 4450,
			"assist": 4451,
			"pitch": 4452,
			"arrangement": 4453,
			"hence": 4454,
			"sad": 4455,
			"scent": 4456,
			"fur": 4457,
			"dj": 4458,
			"sessions": 4459,
			"hp": 4460,
			"refer": 4461,
			"rarely": 4462,
			"##ora": 4463,
			"##ten": 4464,
			"dirty": 4465,
			"burst": 4466,
			"seed": 4467,
			"79": 4468,
			"pole": 4469,
			"limits": 4470,
			"rival": 4471,
			"stable": 4472,
			"alpha": 4473,
			"grave": 4474,
			"alcohol": 4475,
			"arrest": 4476,
			"flower": 4477,
			"mystery": 4478,
			"devil": 4479,
			"architectural": 4480,
			"greatly": 4481,
			"##istic": 4482,
			"remote": 4483,
			"cotton": 4484,
			"##ics": 4485,
			"##ok": 4486,
			"preserved": 4487,
			"reaches": 4488,
			"##ming": 4489,
			"86": 4490,
			"vast": 4491,
			"joy": 4492,
			"teach": 4493,
			"knocked": 4494,
			"eve": 4495,
			"partly": 4496,
			"gap": 4497,
			"excellent": 4498,
			"##ett": 4499,
			"na": 4500,
			"87": 4501,
			"alternate": 4502,
			"saints": 4503,
			"youngest": 4504,
			"##ily": 4505,
			"##ita": 4506,
			"suggest": 4507,
			"##ct": 4508,
			"discussion": 4509,
			"staying": 4510,
			"choir": 4511,
			"lakes": 4512,
			"jacket": 4513,
			"nevertheless": 4514,
			"peaked": 4515,
			"instrument": 4516,
			"wondering": 4517,
			"terry": 4518,
			"##ice": 4519,
			"apply": 4520,
			"brooklyn": 4521,
			"aim": 4522,
			"farmers": 4523,
			"ninth": 4524,
			"pride": 4525,
			"ordinary": 4526,
			"comfortable": 4527,
			"sharing": 4528,
			"##lia": 4529,
			"##em": 4530,
			"panic": 4531,
			"exact": 4532,
			"fat": 4533,
			"cried": 4534,
			"83": 4535,
			"occasions": 4536,
			"pa": 4537,
			"cabin": 4538,
			"borders": 4539,
			"utah": 4540,
			"##isation": 4541,
			"badly": 4542,
			"muscles": 4543,
			"##ance": 4544,
			"transition": 4545,
			"bet": 4546,
			"permission": 4547,
			"##rin": 4548,
			"terrible": 4549,
			"similarly": 4550,
			"shares": 4551,
			"medals": 4552,
			"lowered": 4553,
			"perfectly": 4554,
			"mall": 4555,
			"transit": 4556,
			"##ye": 4557,
			"publisher": 4558,
			"##ened": 4559,
			"##ae": 4560,
			"asleep": 4561,
			"machines": 4562,
			"ash": 4563,
			"hardly": 4564,
			"occasion": 4565,
			"##ua": 4566,
			"concentration": 4567,
			"1000": 4568,
			"hispanic": 4569,
			"extent": 4570,
			"hips": 4571,
			"mason": 4572,
			"volumes": 4573,
			"bloody": 4574,
			"diameter": 4575,
			"steady": 4576,
			"mistake": 4577,
			"identify": 4578,
			"##sk": 4579,
			"richmond": 4580,
			"spin": 4581,
			"gear": 4582,
			"literally": 4583,
			"random": 4584,
			"grab": 4585,
			"op": 4586,
			"leaning": 4587,
			"suspended": 4588,
			"luck": 4589,
			"yours": 4590,
			"hull": 4591,
			"expert": 4592,
			"muscle": 4593,
			"layer": 4594,
			"practical": 4595,
			"jerusalem": 4596,
			"deeper": 4597,
			"recommended": 4598,
			"warrior": 4599,
			"arkansas": 4600,
			"mess": 4601,
			"supports": 4602,
			"greg": 4603,
			"eagle": 4604,
			"rated": 4605,
			"rushed": 4606,
			"##ano": 4607,
			"stops": 4608,
			"eggs": 4609,
			"keith": 4610,
			"##vo": 4611,
			"turner": 4612,
			"pit": 4613,
			"affair": 4614,
			"paint": 4615,
			"##zing": 4616,
			"mate": 4617,
			"##ach": 4618,
			"##ev": 4619,
			"##ology": 4620,
			"bonus": 4621,
			"styles": 4622,
			"##ud": 4623,
			"adaptation": 4624,
			"##ata": 4625,
			"judges": 4626,
			"##ick": 4627,
			"graduating": 4628,
			"continental": 4629,
			"spider": 4630,
			"bite": 4631,
			"##ho": 4632,
			"recognize": 4633,
			"intention": 4634,
			"mixing": 4635,
			"##ese": 4636,
			"egyptian": 4637,
			"bow": 4638,
			"suppose": 4639,
			"tiger": 4640,
			"vi": 4641,
			"##ru": 4642,
			"nurse": 4643,
			"partially": 4644,
			"tape": 4645,
			"##rum": 4646,
			"##rn": 4647,
			"essential": 4648,
			"duo": 4649,
			"channels": 4650,
			"##king": 4651,
			"apparent": 4652,
			"hebrew": 4653,
			"carrier": 4654,
			"beast": 4655,
			"hudson": 4656,
			"##gar": 4657,
			"##zo": 4658,
			"lab": 4659,
			"nova": 4660,
			"bench": 4661,
			"discuss": 4662,
			"##ered": 4663,
			"detailed": 4664,
			"unfortunately": 4665,
			"obtain": 4666,
			"##lis": 4667,
			"rocky": 4668,
			"##dae": 4669,
			"friendship": 4670,
			"honey": 4671,
			"##rian": 4672,
			"amy": 4673,
			"hang": 4674,
			"collins": 4675,
			"preferred": 4676,
			"##po": 4677,
			"laura": 4678,
			"pregnant": 4679,
			"videos": 4680,
			"dennis": 4681,
			"boots": 4682,
			"instantly": 4683,
			"weird": 4684,
			"automatic": 4685,
			"placing": 4686,
			"throwing": 4687,
			"ph": 4688,
			"mood": 4689,
			"perry": 4690,
			"venue": 4691,
			"jet": 4692,
			"remainder": 4693,
			"##lli": 4694,
			"##ci": 4695,
			"passion": 4696,
			"dirt": 4697,
			"buffalo": 4698,
			"ron": 4699,
			"segment": 4700,
			"fa": 4701,
			"##era": 4702,
			"thrown": 4703,
			"stroke": 4704,
			"colored": 4705,
			"stress": 4706,
			"exercise": 4707,
			"displayed": 4708,
			"##gen": 4709,
			"##tti": 4710,
			"dramatic": 4711,
			"wonderful": 4712,
			"thereafter": 4713,
			"component": 4714,
			"##sed": 4715,
			"tale": 4716,
			"todd": 4717,
			"monday": 4718,
			"overseas": 4719,
			"forcing": 4720,
			"crying": 4721,
			"##ris": 4722,
			"substantial": 4723,
			"switch": 4724,
			"drum": 4725,
			"ted": 4726,
			"proof": 4727,
			"lp": 4728,
			"cream": 4729,
			"manor": 4730,
			"silk": 4731,
			"milan": 4732,
			"venture": 4733,
			"principle": 4734,
			"delivery": 4735,
			"##ves": 4736,
			"##ans": 4737,
			"bars": 4738,
			"traditionally": 4739,
			"witch": 4740,
			"reminded": 4741,
			"copper": 4742,
			"##uk": 4743,
			"pete": 4744,
			"inter": 4745,
			"links": 4746,
			"colin": 4747,
			"elsewhere": 4748,
			"frequent": 4749,
			"##oy": 4750,
			"##hu": 4751,
			"tension": 4752,
			"submarine": 4753,
			"finnish": 4754,
			"pat": 4755,
			"detail": 4756,
			"villa": 4757,
			"periods": 4758,
			"tool": 4759,
			"belgian": 4760,
			"answers": 4761,
			"folded": 4762,
			"licensed": 4763,
			"resort": 4764,
			"lion": 4765,
			"writes": 4766,
			"craig": 4767,
			"##fa": 4768,
			"generated": 4769,
			"percentage": 4770,
			"yorkshire": 4771,
			"ss": 4772,
			"ceased": 4773,
			"telephone": 4774,
			"##ible": 4775,
			"chile": 4776,
			"sixteen": 4777,
			"##ich": 4778,
			"dual": 4779,
			"pounds": 4780,
			"checked": 4781,
			"sung": 4782,
			"rico": 4783,
			"bigger": 4784,
			"options": 4785,
			"angels": 4786,
			"wells": 4787,
			"leaf": 4788,
			"patterns": 4789,
			"##tory": 4790,
			"hurricane": 4791,
			"rev": 4792,
			"##ians": 4793,
			"##ula": 4794,
			"elite": 4795,
			"valuable": 4796,
			"disaster": 4797,
			"##ins": 4798,
			"loop": 4799,
			"absolutely": 4800,
			"paying": 4801,
			"maine": 4802,
			"sole": 4803,
			"spencer": 4804,
			"releases": 4805,
			"doorway": 4806,
			"bull": 4807,
			"##ani": 4808,
			"lover": 4809,
			"midnight": 4810,
			"conclusion": 4811,
			"##sson": 4812,
			"thirteen": 4813,
			"lily": 4814,
			"mediterranean": 4815,
			"##lt": 4816,
			"proud": 4817,
			"sample": 4818,
			"##hill": 4819,
			"guinea": 4820,
			"##ova": 4821,
			"murphy": 4822,
			"climb": 4823,
			"##ston": 4824,
			"instant": 4825,
			"horn": 4826,
			"##ao": 4827,
			"autumn": 4828,
			"root": 4829,
			"traveling": 4830,
			"secured": 4831,
			"stretched": 4832,
			"sheet": 4833,
			"trinity": 4834,
			"cattle": 4835,
			"helps": 4836,
			"indicates": 4837,
			"manhattan": 4838,
			"fitted": 4839,
			"gentle": 4840,
			"grandmother": 4841,
			"mines": 4842,
			"shocked": 4843,
			"produces": 4844,
			"##light": 4845,
			"caribbean": 4846,
			"##ou": 4847,
			"belong": 4848,
			"continuous": 4849,
			"desperate": 4850,
			"drunk": 4851,
			"trio": 4852,
			"waved": 4853,
			"raf": 4854,
			"dealing": 4855,
			"nathan": 4856,
			"bat": 4857,
			"pioneer": 4858,
			"aaron": 4859,
			"##net": 4860,
			"delta": 4861,
			"attempting": 4862,
			"mini": 4863,
			"believes": 4864,
			"tend": 4865,
			"lots": 4866,
			"eyed": 4867,
			"indoor": 4868,
			"load": 4869,
			"shots": 4870,
			"##llo": 4871,
			"connecting": 4872,
			"wealth": 4873,
			"##ved": 4874,
			"arrive": 4875,
			"sufficient": 4876,
			"##wick": 4877,
			"flood": 4878,
			"whenever": 4879,
			"repair": 4880,
			"punk": 4881,
			"assisted": 4882,
			"bath": 4883,
			"fairly": 4884,
			"breathe": 4885,
			"lists": 4886,
			"illustrated": 4887,
			"whisper": 4888,
			"nearest": 4889,
			"ties": 4890,
			"ultimate": 4891,
			"andre": 4892,
			"gathering": 4893,
			"comfort": 4894,
			"suitable": 4895,
			"ban": 4896,
			"pine": 4897,
			"wrist": 4898,
			"atmosphere": 4899,
			"bid": 4900,
			"timber": 4901,
			"##ned": 4902,
			"##nan": 4903,
			"##ane": 4904,
			"identical": 4905,
			"switched": 4906,
			"ensemble": 4907,
			"peoples": 4908,
			"touching": 4909,
			"##off": 4910,
			"locally": 4911,
			"pearl": 4912,
			"everywhere": 4913,
			"tables": 4914,
			"lanka": 4915,
			"outdoor": 4916,
			"spaces": 4917,
			"slight": 4918,
			"##dra": 4919,
			"tube": 4920,
			"thai": 4921,
			"##ys": 4922,
			"isolated": 4923,
			"select": 4924,
			"##ric": 4925,
			"insisted": 4926,
			"pen": 4927,
			"fortune": 4928,
			"spotted": 4929,
			"110": 4930,
			"wider": 4931,
			"lowest": 4932,
			"##time": 4933,
			"nod": 4934,
			"hitting": 4935,
			"##hn": 4936,
			"##ery": 4937,
			"pointing": 4938,
			"requested": 4939,
			"peru": 4940,
			"reed": 4941,
			"mask": 4942,
			"flames": 4943,
			"reduction": 4944,
			"##tis": 4945,
			"##hl": 4946,
			"wire": 4947,
			"settlers": 4948,
			"knock": 4949,
			"eu": 4950,
			"compound": 4951,
			"creatures": 4952,
			"mansion": 4953,
			"ivan": 4954,
			"involves": 4955,
			"mechanism": 4956,
			"shops": 4957,
			"duncan": 4958,
			"alien": 4959,
			"fist": 4960,
			"bridges": 4961,
			"##pers": 4962,
			"heroes": 4963,
			"fed": 4964,
			"derby": 4965,
			"swallowed": 4966,
			"##ros": 4967,
			"patent": 4968,
			"sara": 4969,
			"illness": 4970,
			"adventures": 4971,
			"slide": 4972,
			"hawaii": 4973,
			"##op": 4974,
			"##side": 4975,
			"se": 4976,
			"##ties": 4977,
			"rogers": 4978,
			"swing": 4979,
			"tightly": 4980,
			"boundaries": 4981,
			"##rie": 4982,
			"prepare": 4983,
			"##sha": 4984,
			"certified": 4985,
			"edwards": 4986,
			"garage": 4987,
			"##mm": 4988,
			"##ball": 4989,
			"harm": 4990,
			"breast": 4991,
			"##ren": 4992,
			"pupils": 4993,
			"settle": 4994,
			"##lus": 4995,
			"balls": 4996,
			"alaska": 4997,
			"celebration": 4998,
			"latino": 4999,
			"##cia": 5000,
			"##ening": 5001,
			"lightning": 5002,
			"fee": 5003,
			"lodge": 5004,
			"skull": 5005,
			"##ique": 5006,
			"hood": 5007,
			"##ei": 5008,
			"warned": 5009,
			"devoted": 5010,
			"porch": 5011,
			"fourteen": 5012,
			"package": 5013,
			"decorated": 5014,
			"##shire": 5015,
			"##ock": 5016,
			"chess": 5017,
			"sailed": 5018,
			"oscar": 5019,
			"joan": 5020,
			"treat": 5021,
			"garcia": 5022,
			"##ire": 5023,
			"traditions": 5024,
			"dominant": 5025,
			"jacques": 5026,
			"##gon": 5027,
			"##wan": 5028,
			"sized": 5029,
			"companion": 5030,
			"simultaneously": 5031,
			"spun": 5032,
			"increases": 5033,
			"stopping": 5034,
			"loves": 5035,
			"affect": 5036,
			"tossed": 5037,
			"scout": 5038,
			"vertical": 5039,
			"##cher": 5040,
			"argue": 5041,
			"##ical": 5042,
			"craft": 5043,
			"ranging": 5044,
			"opens": 5045,
			"honest": 5046,
			"##let": 5047,
			"muslims": 5048,
			"reveal": 5049,
			"snake": 5050,
			"immigrants": 5051,
			"screaming": 5052,
			"firing": 5053,
			"saving": 5054,
			"ease": 5055,
			"lighting": 5056,
			"farmer": 5057,
			"hungry": 5058,
			"grows": 5059,
			"rubbed": 5060,
			"beam": 5061,
			"sur": 5062,
			"##cha": 5063,
			"armenian": 5064,
			"sao": 5065,
			"dropping": 5066,
			"conventional": 5067,
			"##fer": 5068,
			"spots": 5069,
			"sweat": 5070,
			"##ken": 5071,
			"discover": 5072,
			"exposure": 5073,
			"sandy": 5074,
			"explanation": 5075,
			"##fish": 5076,
			"hart": 5077,
			"connect": 5078,
			"presents": 5079,
			"heights": 5080,
			"pleased": 5081,
			"regardless": 5082,
			"slip": 5083,
			"closest": 5084,
			"##ction": 5085,
			"surely": 5086,
			"sultan": 5087,
			"brings": 5088,
			"preparation": 5089,
			"experiment": 5090,
			"organic": 5091,
			"##ika": 5092,
			"1877": 5093,
			"130": 5094,
			"##tar": 5095,
			"error": 5096,
			"tours": 5097,
			"tier": 5098,
			"plenty": 5099,
			"arrangements": 5100,
			"trapped": 5101,
			"ho": 5102,
			"denver": 5103,
			"trick": 5104,
			"belly": 5105,
			"exclusively": 5106,
			"##med": 5107,
			"##ette": 5108,
			"sensitive": 5109,
			"hello": 5110,
			"measured": 5111,
			"globe": 5112,
			"rocket": 5113,
			"amsterdam": 5114,
			"inn": 5115,
			"3d": 5116,
			"##mus": 5117,
			"devon": 5118,
			"comment": 5119,
			"##ites": 5120,
			"absolute": 5121,
			"jefferson": 5122,
			"towers": 5123,
			"##tin": 5124,
			"##lu": 5125,
			"hi": 5126,
			"gauge": 5127,
			"rings": 5128,
			"trace": 5129,
			"thumb": 5130,
			"burns": 5131,
			"bulgarian": 5132,
			"scores": 5133,
			"demonstrated": 5134,
			"##ix": 5135,
			"underneath": 5136,
			"##ward": 5137,
			"phrase": 5138,
			"reveals": 5139,
			"han": 5140,
			"cuts": 5141,
			"custom": 5142,
			"##dar": 5143,
			"nee": 5144,
			"graduation": 5145,
			"##nts": 5146,
			"cafe": 5147,
			"difficulty": 5148,
			"demands": 5149,
			"grove": 5150,
			"##yo": 5151,
			"completing": 5152,
			"sum": 5153,
			"substitute": 5154,
			"bearing": 5155,
			"stretch": 5156,
			"##py": 5157,
			"essentially": 5158,
			"destination": 5159,
			"pairs": 5160,
			"##ched": 5161,
			"##bach": 5162,
			"doubles": 5163,
			"tear": 5164,
			"##down": 5165,
			"##fully": 5166,
			"florence": 5167,
			"partial": 5168,
			"900": 5169,
			"pedro": 5170,
			"frozen": 5171,
			"procedure": 5172,
			"olivia": 5173,
			"controls": 5174,
			"##mic": 5175,
			"personally": 5176,
			"temperatures": 5177,
			"##od": 5178,
			"tested": 5179,
			"sits": 5180,
			"marble": 5181,
			"oxygen": 5182,
			"iranian": 5183,
			"referring": 5184,
			"quarters": 5185,
			"##ivity": 5186,
			"lined": 5187,
			"mars": 5188,
			"dakota": 5189,
			"norfolk": 5190,
			"##°": 5191,
			"##sing": 5192,
			"bitch": 5193,
			"seal": 5194,
			"divine": 5195,
			"##ters": 5196,
			"manufacturer": 5197,
			"sink": 5198,
			"columns": 5199,
			"unincorporated": 5200,
			"signals": 5201,
			"nevada": 5202,
			"squeezed": 5203,
			"dylan": 5204,
			"dining": 5205,
			"photos": 5206,
			"eighteen": 5207,
			"brushed": 5208,
			"plates": 5209,
			"ivy": 5210,
			"##len": 5211,
			"curve": 5212,
			"likes": 5213,
			"arnold": 5214,
			"bold": 5215,
			"intermediate": 5216,
			"margin": 5217,
			"ruler": 5218,
			"wheels": 5219,
			"dependent": 5220,
			"syria": 5221,
			"earn": 5222,
			"cincinnati": 5223,
			"collapsed": 5224,
			"recipient": 5225,
			"secrets": 5226,
			"accessible": 5227,
			"philippine": 5228,
			"goddess": 5229,
			"clerk": 5230,
			"breaks": 5231,
			"##ified": 5232,
			"##lon": 5233,
			"ideal": 5234,
			"aspect": 5235,
			"soap": 5236,
			"strings": 5237,
			"expand": 5238,
			"shorter": 5239,
			"crosses": 5240,
			"retreat": 5241,
			"tough": 5242,
			"coins": 5243,
			"directions": 5244,
			"pressing": 5245,
			"##oon": 5246,
			"shipping": 5247,
			"comparison": 5248,
			"nephew": 5249,
			"##mes": 5250,
			"distinction": 5251,
			"sierra": 5252,
			"##over": 5253,
			"fortress": 5254,
			"sa": 5255,
			"carved": 5256,
			"##dan": 5257,
			"intent": 5258,
			"##mar": 5259,
			"bread": 5260,
			"##ington": 5261,
			"beaten": 5262,
			"##ona": 5263,
			"youtube": 5264,
			"collapse": 5265,
			"em": 5266,
			"objective": 5267,
			"drake": 5268,
			"assume": 5269,
			"##ere": 5270,
			"stem": 5271,
			"##cus": 5272,
			"##ab": 5273,
			"glasses": 5274,
			"##lock": 5275,
			"nowhere": 5276,
			"relevant": 5277,
			"carries": 5278,
			"restaurants": 5279,
			"101": 5280,
			"constantly": 5281,
			"bases": 5282,
			"targets": 5283,
			"shah": 5284,
			"tenth": 5285,
			"##ira": 5286,
			"##hs": 5287,
			"instruction": 5288,
			"reverse": 5289,
			"emphasis": 5290,
			"##vic": 5291,
			"arch": 5292,
			"keeps": 5293,
			"watson": 5294,
			"uh": 5295,
			"##ala": 5296,
			"##tre": 5297,
			"venice": 5298,
			"fastest": 5299,
			"sexy": 5300,
			"adrian": 5301,
			"properly": 5302,
			"ruth": 5303,
			"dollar": 5304,
			"boards": 5305,
			"metre": 5306,
			"circles": 5307,
			"edges": 5308,
			"ok": 5309,
			"scattered": 5310,
			"firmly": 5311,
			"##ular": 5312,
			"holland": 5313,
			"den": 5314,
			"originated": 5315,
			"##ral": 5316,
			"resumed": 5317,
			"dragged": 5318,
			"##rus": 5319,
			"extend": 5320,
			"torn": 5321,
			"##ias": 5322,
			"meal": 5323,
			"everybody": 5324,
			"cylinder": 5325,
			"kinds": 5326,
			"camps": 5327,
			"##fe": 5328,
			"bullet": 5329,
			"logic": 5330,
			"##wn": 5331,
			"healthy": 5332,
			"fool": 5333,
			"chocolate": 5334,
			"wise": 5335,
			"preserve": 5336,
			"##ess": 5337,
			"respective": 5338,
			"##ew": 5339,
			"chicken": 5340,
			"artificial": 5341,
			"gross": 5342,
			"corresponding": 5343,
			"cage": 5344,
			"##dor": 5345,
			"br": 5346,
			"failing": 5347,
			"trent": 5348,
			"focusing": 5349,
			"altitude": 5350,
			"##ering": 5351,
			"mouse": 5352,
			"##sley": 5353,
			"##ig": 5354,
			"pulls": 5355,
			"##ability": 5356,
			"drag": 5357,
			"excellence": 5358,
			"intensity": 5359,
			"##lar": 5360,
			"contributing": 5361,
			"printing": 5362,
			"##burn": 5363,
			"variable": 5364,
			"##rk": 5365,
			"bin": 5366,
			"renaissance": 5367,
			"##my": 5368,
			"binding": 5369,
			"ya": 5370,
			"enters": 5371,
			"sc": 5372,
			"diplomatic": 5373,
			"##ser": 5374,
			"clouds": 5375,
			"quit": 5376,
			"##heim": 5377,
			"hardware": 5378,
			"impressive": 5379,
			"equally": 5380,
			"guilt": 5381,
			"chuck": 5382,
			"sliding": 5383,
			"##ware": 5384,
			"otto": 5385,
			"skill": 5386,
			"##ama": 5387,
			"reader": 5388,
			"pitcher": 5389,
			"reservoir": 5390,
			"hearts": 5391,
			"automatically": 5392,
			"expecting": 5393,
			"imagined": 5394,
			"seeds": 5395,
			"monitor": 5396,
			"fix": 5397,
			"##ative": 5398,
			"struggling": 5399,
			"signature": 5400,
			"ranch": 5401,
			"encounter": 5402,
			"##pin": 5403,
			"##hr": 5404,
			"##all": 5405,
			"cruz": 5406,
			"naturally": 5407,
			"basement": 5408,
			"hook": 5409,
			"faded": 5410,
			"approaches": 5411,
			"dare": 5412,
			"phillips": 5413,
			"filling": 5414,
			"##ain": 5415,
			"efficient": 5416,
			"arc": 5417,
			"deliver": 5418,
			"min": 5419,
			"raid": 5420,
			"breeding": 5421,
			"efficiency": 5422,
			"montana": 5423,
			"##ked": 5424,
			"instructions": 5425,
			"karen": 5426,
			"picking": 5427,
			"indicating": 5428,
			"trap": 5429,
			"anchor": 5430,
			"practically": 5431,
			"tomb": 5432,
			"vary": 5433,
			"occasional": 5434,
			"newcastle": 5435,
			"faint": 5436,
			"collect": 5437,
			"engagement": 5438,
			"160": 5439,
			"claude": 5440,
			"mixture": 5441,
			"peer": 5442,
			"tissue": 5443,
			"logo": 5444,
			"lean": 5445,
			"##ration": 5446,
			"°f": 5447,
			"##ven": 5448,
			"reducing": 5449,
			"##our": 5450,
			"##ments": 5451,
			"rope": 5452,
			"##har": 5453,
			"banking": 5454,
			"proteins": 5455,
			"twins": 5456,
			"##ras": 5457,
			"jo": 5458,
			"temporarily": 5459,
			"pulse": 5460,
			"curled": 5461,
			"##ena": 5462,
			"bengal": 5463,
			"usage": 5464,
			"##ban": 5465,
			"annie": 5466,
			"##pi": 5467,
			"holes": 5468,
			"distinctive": 5469,
			"##mon": 5470,
			"circular": 5471,
			"removal": 5472,
			"loaded": 5473,
			"mere": 5474,
			"vulnerable": 5475,
			"heir": 5476,
			"enormous": 5477,
			"lightly": 5478,
			"climbing": 5479,
			"ram": 5480,
			"preparing": 5481,
			"brad": 5482,
			"##₂": 5483,
			"##ably": 5484,
			"plaza": 5485,
			"brilliant": 5486,
			"##bar": 5487,
			"##nik": 5488,
			"server": 5489,
			"pleasant": 5490,
			"seized": 5491,
			"fail": 5492,
			"beta": 5493,
			"brush": 5494,
			"stored": 5495,
			"warmth": 5496,
			"sin": 5497,
			"joke": 5498,
			"trunk": 5499,
			"##low": 5500,
			"heels": 5501,
			"receives": 5502,
			"reserves": 5503,
			"##bed": 5504,
			"abu": 5505,
			"floating": 5506,
			"fake": 5507,
			"lesser": 5508,
			"excitement": 5509,
			"concentrated": 5510,
			"characteristic": 5511,
			"amanda": 5512,
			"monk": 5513,
			"auto": 5514,
			"##bus": 5515,
			"releasing": 5516,
			"egg": 5517,
			"dies": 5518,
			"interaction": 5519,
			"ce": 5520,
			"glory": 5521,
			"##bert": 5522,
			"ski": 5523,
			"##ress": 5524,
			"handling": 5525,
			"brow": 5526,
			"somebody": 5527,
			"amounts": 5528,
			"contracts": 5529,
			"presentation": 5530,
			"fabric": 5531,
			"dissolved": 5532,
			"lt": 5533,
			"elevated": 5534,
			"accurate": 5535,
			"##tha": 5536,
			"specialist": 5537,
			"venezuela": 5538,
			"exhibit": 5539,
			"shed": 5540,
			"fluid": 5541,
			"structural": 5542,
			"consistent": 5543,
			"##ska": 5544,
			"succession": 5545,
			"reflect": 5546,
			"wiped": 5547,
			"suspect": 5548,
			"shanghai": 5549,
			"resting": 5550,
			"integration": 5551,
			"variant": 5552,
			"sheep": 5553,
			"rounded": 5554,
			"variations": 5555,
			"functional": 5556,
			"emerging": 5557,
			"boxing": 5558,
			"relaxed": 5559,
			"curse": 5560,
			"heavyweight": 5561,
			"rang": 5562,
			"grid": 5563,
			"tightened": 5564,
			"flashed": 5565,
			"miguel": 5566,
			"##ches": 5567,
			"boxes": 5568,
			"brooks": 5569,
			"180": 5570,
			"consumption": 5571,
			"molecular": 5572,
			"repeatedly": 5573,
			"variation": 5574,
			"aids": 5575,
			"professionals": 5576,
			"realm": 5577,
			"delayed": 5578,
			"chairs": 5579,
			"trump": 5580,
			"canyon": 5581,
			"##point": 5582,
			"harsh": 5583,
			"extending": 5584,
			"lovely": 5585,
			"##jan": 5586,
			"stake": 5587,
			"eyebrows": 5588,
			"wellington": 5589,
			"##ella": 5590,
			"corners": 5591,
			"cloth": 5592,
			"contents": 5593,
			"xi": 5594,
			"##bin": 5595,
			"clearing": 5596,
			"cooking": 5597,
			"ruins": 5598,
			"jenny": 5599,
			"celebrate": 5600,
			"hasn": 5601,
			"sixty": 5602,
			"##art": 5603,
			"newton": 5604,
			"##ada": 5605,
			"deer": 5606,
			"##ges": 5607,
			"##ching": 5608,
			"smiles": 5609,
			"##ets": 5610,
			"approaching": 5611,
			"flame": 5612,
			"##ph": 5613,
			"boulevard": 5614,
			"barrel": 5615,
			"planted": 5616,
			"##ome": 5617,
			"##sia": 5618,
			"posts": 5619,
			"shallow": 5620,
			"rod": 5621,
			"striking": 5622,
			"blast": 5623,
			"descendants": 5624,
			"montgomery": 5625,
			"ranges": 5626,
			"worlds": 5627,
			"##lay": 5628,
			"##ari": 5629,
			"span": 5630,
			"chaos": 5631,
			"##ag": 5632,
			"fewer": 5633,
			"mud": 5634,
			"##ions": 5635,
			"maintaining": 5636,
			"unity": 5637,
			"harper": 5638,
			"bore": 5639,
			"handsome": 5640,
			"closure": 5641,
			"thunder": 5642,
			"linda": 5643,
			"puts": 5644,
			"satisfied": 5645,
			"argentine": 5646,
			"dale": 5647,
			"cork": 5648,
			"dome": 5649,
			"panama": 5650,
			"##yl": 5651,
			"tasks": 5652,
			"experts": 5653,
			"##ates": 5654,
			"feeding": 5655,
			"##las": 5656,
			"##ida": 5657,
			"##tu": 5658,
			"engage": 5659,
			"bryan": 5660,
			"##ax": 5661,
			"um": 5662,
			"quartet": 5663,
			"blocked": 5664,
			"delay": 5665,
			"kisses": 5666,
			"connects": 5667,
			"##non": 5668,
			"poured": 5669,
			"##we": 5670,
			"ellis": 5671,
			"hug": 5672,
			"gaining": 5673,
			"##ord": 5674,
			"##bility": 5675,
			"poll": 5676,
			"clenched": 5677,
			"##use": 5678,
			"thereby": 5679,
			"spine": 5680,
			"##du": 5681,
			"encountered": 5682,
			"ignore": 5683,
			"##bu": 5684,
			"##maker": 5685,
			"bother": 5686,
			"roosevelt": 5687,
			"140": 5688,
			"halfway": 5689,
			"flowing": 5690,
			"cultures": 5691,
			"crack": 5692,
			"neighboring": 5693,
			"##ses": 5694,
			"##mate": 5695,
			"##ec": 5696,
			"gather": 5697,
			"transformed": 5698,
			"##ill": 5699,
			"punch": 5700,
			"alarm": 5701,
			"daddy": 5702,
			"colours": 5703,
			"impression": 5704,
			"guidance": 5705,
			"##rat": 5706,
			"arrow": 5707,
			"##ings": 5708,
			"rested": 5709,
			"tender": 5710,
			"bitter": 5711,
			"##ides": 5712,
			"spare": 5713,
			"farms": 5714,
			"##ene": 5715,
			"encourage": 5716,
			"##und": 5717,
			"sucked": 5718,
			"pile": 5719,
			"spirits": 5720,
			"prague": 5721,
			"suspension": 5722,
			"fence": 5723,
			"bags": 5724,
			"pond": 5725,
			"spy": 5726,
			"coup": 5727,
			"##og": 5728,
			"protecting": 5729,
			"transformation": 5730,
			"glow": 5731,
			"##lands": 5732,
			"##book": 5733,
			"dug": 5734,
			"priests": 5735,
			"barn": 5736,
			"jumping": 5737,
			"##chen": 5738,
			"##con": 5739,
			"stern": 5740,
			"pipe": 5741,
			"revealing": 5742,
			"ba": 5743,
			"##bel": 5744,
			"spectrum": 5745,
			"yang": 5746,
			"consist": 5747,
			"epic": 5748,
			"comprises": 5749,
			"blew": 5750,
			"##ack": 5751,
			"lopez": 5752,
			"magical": 5753,
			"sacrifice": 5754,
			"judgment": 5755,
			"hammer": 5756,
			"tune": 5757,
			"sheets": 5758,
			"350": 5759,
			"neutral": 5760,
			"threatening": 5761,
			"attractive": 5762,
			"shade": 5763,
			"estates": 5764,
			"michel": 5765,
			"manufacturers": 5766,
			"##nic": 5767,
			"mercury": 5768,
			"porter": 5769,
			"##iya": 5770,
			"purse": 5771,
			"widened": 5772,
			"pause": 5773,
			"celtic": 5774,
			"fisher": 5775,
			"125": 5776,
			"byzantine": 5777,
			"farther": 5778,
			"##mp": 5779,
			"diet": 5780,
			"sake": 5781,
			"au": 5782,
			"sensation": 5783,
			"##ert": 5784,
			"blank": 5785,
			"separation": 5786,
			"105": 5787,
			"##hon": 5788,
			"##lie": 5789,
			"accommodate": 5790,
			"##ify": 5791,
			"##box": 5792,
			"mia": 5793,
			"violet": 5794,
			"blanket": 5795,
			"fires": 5796,
			"canton": 5797,
			"southwestern": 5798,
			"altered": 5799,
			"moderate": 5800,
			"pistol": 5801,
			"##eo": 5802,
			"questioned": 5803,
			"brass": 5804,
			"lifting": 5805,
			"math": 5806,
			"##ual": 5807,
			"##san": 5808,
			"pronounced": 5809,
			"grateful": 5810,
			"uncomfortable": 5811,
			"boom": 5812,
			"stevens": 5813,
			"relating": 5814,
			"chen": 5815,
			"barrier": 5816,
			"diana": 5817,
			"cheese": 5818,
			"palmer": 5819,
			"portions": 5820,
			"sometime": 5821,
			"treasure": 5822,
			"wu": 5823,
			"bend": 5824,
			"millions": 5825,
			"##osa": 5826,
			"monitoring": 5827,
			"ate": 5828,
			"preliminary": 5829,
			"invented": 5830,
			"ps": 5831,
			"eaten": 5832,
			"exterior": 5833,
			"log": 5834,
			"displays": 5835,
			"favourite": 5836,
			"##itz": 5837,
			"vermont": 5838,
			"lo": 5839,
			"invisible": 5840,
			"breed": 5841,
			"##ator": 5842,
			"speaks": 5843,
			"backward": 5844,
			"explore": 5845,
			"actively": 5846,
			"procedures": 5847,
			"cannon": 5848,
			"blond": 5849,
			"centered": 5850,
			"chains": 5851,
			"essex": 5852,
			"henri": 5853,
			"##hal": 5854,
			"facts": 5855,
			"fairy": 5856,
			"cats": 5857,
			"washed": 5858,
			"cop": 5859,
			"##fi": 5860,
			"item": 5861,
			"vinyl": 5862,
			"activated": 5863,
			"marco": 5864,
			"frontier": 5865,
			"##das": 5866,
			"loyal": 5867,
			"accomplished": 5868,
			"##00": 5869,
			"napoleon": 5870,
			"hollow": 5871,
			"hybrid": 5872,
			"##ulated": 5873,
			"platinum": 5874,
			"seated": 5875,
			"col": 5876,
			"rubber": 5877,
			"glen": 5878,
			"1840": 5879,
			"extends": 5880,
			"id": 5881,
			"##oe": 5882,
			"te": 5883,
			"assured": 5884,
			"org": 5885,
			"##uous": 5886,
			"examined": 5887,
			"bailey": 5888,
			"flute": 5889,
			"consultant": 5890,
			"proceedings": 5891,
			"kit": 5892,
			"kerala": 5893,
			"buddy": 5894,
			"##ith": 5895,
			"centres": 5896,
			"batman": 5897,
			"##nda": 5898,
			"bo": 5899,
			"dock": 5900,
			"lungs": 5901,
			"severely": 5902,
			"##nk": 5903,
			"##ugh": 5904,
			"steal": 5905,
			"iraqi": 5906,
			"robot": 5907,
			"pot": 5908,
			"joel": 5909,
			"overhead": 5910,
			"franz": 5911,
			"packed": 5912,
			"johann": 5913,
			"introduce": 5914,
			"handled": 5915,
			"drinks": 5916,
			"##nis": 5917,
			"##aki": 5918,
			"recover": 5919,
			"grain": 5920,
			"patch": 5921,
			"afford": 5922,
			"infection": 5923,
			"##ath": 5924,
			"interchange": 5925,
			"virtually": 5926,
			"gen": 5927,
			"gravity": 5928,
			"amber": 5929,
			"vital": 5930,
			"elbow": 5931,
			"##bird": 5932,
			"contribute": 5933,
			"indonesian": 5934,
			"pet": 5935,
			"creates": 5936,
			"##com": 5937,
			"enzyme": 5938,
			"drops": 5939,
			"manila": 5940,
			"hunger": 5941,
			"##ien": 5942,
			"layers": 5943,
			"suffer": 5944,
			"fever": 5945,
			"bits": 5946,
			"monica": 5947,
			"manages": 5948,
			"appeals": 5949,
			"##bad": 5950,
			"grande": 5951,
			"##war": 5952,
			"congo": 5953,
			"##ification": 5954,
			"##dia": 5955,
			"si": 5956,
			"requiring": 5957,
			"##via": 5958,
			"regret": 5959,
			"streak": 5960,
			"rape": 5961,
			"depends": 5962,
			"syrian": 5963,
			"pound": 5964,
			"##xi": 5965,
			"##els": 5966,
			"practiced": 5967,
			"nationwide": 5968,
			"liz": 5969,
			"##zar": 5970,
			"desired": 5971,
			"precious": 5972,
			"absorbed": 5973,
			"booth": 5974,
			"##mal": 5975,
			"##hed": 5976,
			"noting": 5977,
			"urge": 5978,
			"##gue": 5979,
			"ace": 5980,
			"holly": 5981,
			"##tal": 5982,
			"blonde": 5983,
			"sustainable": 5984,
			"nest": 5985,
			"chip": 5986,
			"##nell": 5987,
			"tan": 5988,
			"shaft": 5989,
			"requirement": 5990,
			"##zy": 5991,
			"paradise": 5992,
			"trans": 5993,
			"vietnamese": 5994,
			"##cker": 5995,
			"##ju": 5996,
			"catching": 5997,
			"enjoying": 5998,
			"md": 5999,
			"trips": 6000,
			"colt": 6001,
			"holder": 6002,
			"butterfly": 6003,
			"nerve": 6004,
			"cherry": 6005,
			"carriage": 6006,
			"appreciate": 6007,
			"toy": 6008,
			"enabled": 6009,
			"involve": 6010,
			"##kan": 6011,
			"collar": 6012,
			"bunch": 6013,
			"shorts": 6014,
			"array": 6015,
			"circulation": 6016,
			"deals": 6017,
			"permit": 6018,
			"##wi": 6019,
			"cottage": 6020,
			"ni": 6021,
			"##sta": 6022,
			"horizon": 6023,
			"ellen": 6024,
			"jamaica": 6025,
			"ripped": 6026,
			"chapters": 6027,
			"patron": 6028,
			"georgian": 6029,
			"solomon": 6030,
			"rivals": 6031,
			"swift": 6032,
			"independently": 6033,
			"1847": 6034,
			"entity": 6035,
			"casting": 6036,
			"hank": 6037,
			"milwaukee": 6038,
			"expanding": 6039,
			"##tv": 6040,
			"halt": 6041,
			"brave": 6042,
			"doi": 6043,
			"arched": 6044,
			"predominantly": 6045,
			"somerset": 6046,
			"streams": 6047,
			"zoo": 6048,
			"curved": 6049,
			"fierce": 6050,
			"unions": 6051,
			"handful": 6052,
			"stability": 6053,
			"chan": 6054,
			"segments": 6055,
			"##lly": 6056,
			"monsters": 6057,
			"pastor": 6058,
			"##stone": 6059,
			"thighs": 6060,
			"unexpected": 6061,
			"coin": 6062,
			"pin": 6063,
			"##ose": 6064,
			"compact": 6065,
			"reserved": 6066,
			"##urs": 6067,
			"restore": 6068,
			"assembled": 6069,
			"hurry": 6070,
			"oval": 6071,
			"##cies": 6072,
			"flags": 6073,
			"martha": 6074,
			"##del": 6075,
			"sharply": 6076,
			"##rated": 6077,
			"deadly": 6078,
			"drawings": 6079,
			"performer": 6080,
			"restrictions": 6081,
			"java": 6082,
			"dee": 6083,
			"pierce": 6084,
			"removing": 6085,
			"##zation": 6086,
			"retain": 6087,
			"potentially": 6088,
			"##tto": 6089,
			"##tle": 6090,
			"##cal": 6091,
			"fork": 6092,
			"counts": 6093,
			"chelsea": 6094,
			"cab": 6095,
			"palestinian": 6096,
			"finn": 6097,
			"simpson": 6098,
			"##dal": 6099,
			"betty": 6100,
			"##ule": 6101,
			"particles": 6102,
			"tent": 6103,
			"extraordinary": 6104,
			"##oid": 6105,
			"##works": 6106,
			"wednesday": 6107,
			"maintains": 6108,
			"panels": 6109,
			"##nation": 6110,
			"cluster": 6111,
			"sunlight": 6112,
			"strikes": 6113,
			"##wing": 6114,
			"canon": 6115,
			"##ap": 6116,
			"tucked": 6117,
			"##ws": 6118,
			"collecting": 6119,
			"##mas": 6120,
			"##can": 6121,
			"maker": 6122,
			"evan": 6123,
			"franco": 6124,
			"buying": 6125,
			"cleaning": 6126,
			"eva": 6127,
			"closet": 6128,
			"rat": 6129,
			"##ez": 6130,
			"necessarily": 6131,
			"ac": 6132,
			"##gle": 6133,
			"##ising": 6134,
			"flipped": 6135,
			"cent": 6136,
			"spreading": 6137,
			"checking": 6138,
			"##sco": 6139,
			"##ado": 6140,
			"notion": 6141,
			"duration": 6142,
			"trumpet": 6143,
			"topped": 6144,
			"brussels": 6145,
			"rolls": 6146,
			"hint": 6147,
			"define": 6148,
			"aggressive": 6149,
			"repeat": 6150,
			"wash": 6151,
			"width": 6152,
			"strict": 6153,
			"copyright": 6154,
			"##illa": 6155,
			"mar": 6156,
			"jam": 6157,
			"sounding": 6158,
			"##pp": 6159,
			"valid": 6160,
			"102": 6161,
			"headquartered": 6162,
			"diving": 6163,
			"gibson": 6164,
			"##ncy": 6165,
			"marsh": 6166,
			"enhanced": 6167,
			"er": 6168,
			"substance": 6169,
			"spinning": 6170,
			"smoking": 6171,
			"varied": 6172,
			"indies": 6173,
			"thursday": 6174,
			"rid": 6175,
			"##ridge": 6176,
			"knots": 6177,
			"foods": 6178,
			"lighter": 6179,
			"fraser": 6180,
			"whoever": 6181,
			"##ray": 6182,
			"flooding": 6183,
			"##ale": 6184,
			"duck": 6185,
			"teen": 6186,
			"overcome": 6187,
			"##ile": 6188,
			"glenn": 6189,
			"rises": 6190,
			"shame": 6191,
			"##cc": 6192,
			"forgot": 6193,
			"protective": 6194,
			"360": 6195,
			"breeze": 6196,
			"henderson": 6197,
			"relax": 6198,
			"candy": 6199,
			"palms": 6200,
			"remarkable": 6201,
			"##rio": 6202,
			"trigger": 6203,
			"##uri": 6204,
			"##away": 6205,
			"sail": 6206,
			"alert": 6207,
			"1830": 6208,
			"penn": 6209,
			"sussex": 6210,
			"resist": 6211,
			"rosa": 6212,
			"avoided": 6213,
			"##tie": 6214,
			"##nna": 6215,
			"hurried": 6216,
			"##una": 6217,
			"eventual": 6218,
			"bleeding": 6219,
			"innovative": 6220,
			"cure": 6221,
			"##dom": 6222,
			"con": 6223,
			"hardy": 6224,
			"heather": 6225,
			"tenor": 6226,
			"gut": 6227,
			"scales": 6228,
			"wagon": 6229,
			"##oo": 6230,
			"luxury": 6231,
			"tin": 6232,
			"prefer": 6233,
			"fountain": 6234,
			"triangle": 6235,
			"dried": 6236,
			"traced": 6237,
			"beings": 6238,
			"accidentally": 6239,
			"slam": 6240,
			"smelled": 6241,
			"outcome": 6242,
			"steep": 6243,
			"configuration": 6244,
			"shifting": 6245,
			"toll": 6246,
			"brook": 6247,
			"construct": 6248,
			"aggregate": 6249,
			"cox": 6250,
			"insane": 6251,
			"reynolds": 6252,
			"lifestyle": 6253,
			"##ima": 6254,
			"consideration": 6255,
			"enable": 6256,
			"mo": 6257,
			"mama": 6258,
			"##tein": 6259,
			"fights": 6260,
			"chances": 6261,
			"atomic": 6262,
			"hub": 6263,
			"awkward": 6264,
			"reactions": 6265,
			"kumar": 6266,
			"steering": 6267,
			"elaborate": 6268,
			"gifts": 6269,
			"melissa": 6270,
			"veins": 6271,
			"reasonable": 6272,
			"sunshine": 6273,
			"chi": 6274,
			"solve": 6275,
			"trails": 6276,
			"elimination": 6277,
			"huh": 6278,
			"ana": 6279,
			"molly": 6280,
			"layout": 6281,
			"##ces": 6282,
			"bulk": 6283,
			"##oma": 6284,
			"hometown": 6285,
			"##wall": 6286,
			"##mont": 6287,
			"cracked": 6288,
			"reads": 6289,
			"withdrawn": 6290,
			"damned": 6291,
			"lancashire": 6292,
			"brands": 6293,
			"forgive": 6294,
			"cuban": 6295,
			"awful": 6296,
			"##lyn": 6297,
			"104": 6298,
			"dimensions": 6299,
			"imagination": 6300,
			"##ade": 6301,
			"##yne": 6302,
			"confident": 6303,
			"uncertain": 6304,
			"slope": 6305,
			"fog": 6306,
			"accent": 6307,
			"cycling": 6308,
			"varying": 6309,
			"specified": 6310,
			"scotia": 6311,
			"mature": 6312,
			"rap": 6313,
			"##kes": 6314,
			"750": 6315,
			"heated": 6316,
			"es": 6317,
			"transported": 6318,
			"##shan": 6319,
			"safely": 6320,
			"nonetheless": 6321,
			"##orn": 6322,
			"##gal": 6323,
			"generate": 6324,
			"caps": 6325,
			"stained": 6326,
			"demo": 6327,
			"beds": 6328,
			"ap": 6329,
			"afterward": 6330,
			"##bling": 6331,
			"utility": 6332,
			"##iro": 6333,
			"shining": 6334,
			"cyprus": 6335,
			"olive": 6336,
			"gym": 6337,
			"miracle": 6338,
			"insects": 6339,
			"graves": 6340,
			"hydrogen": 6341,
			"amazon": 6342,
			"##pan": 6343,
			"dense": 6344,
			"jin": 6345,
			"tang": 6346,
			"bang": 6347,
			"elderly": 6348,
			"granite": 6349,
			"mineral": 6350,
			"conflicts": 6351,
			"carlo": 6352,
			"##zu": 6353,
			"stark": 6354,
			"rhode": 6355,
			"skirt": 6356,
			"est": 6357,
			"##berry": 6358,
			"bombs": 6359,
			"respected": 6360,
			"##horn": 6361,
			"limestone": 6362,
			"memphis": 6363,
			"grabbing": 6364,
			"##als": 6365,
			"aa": 6366,
			"frankfurt": 6367,
			"corn": 6368,
			"varies": 6369,
			"slowed": 6370,
			"disk": 6371,
			"firms": 6372,
			"unconscious": 6373,
			"incredible": 6374,
			"clue": 6375,
			"sue": 6376,
			"twist": 6377,
			"##cio": 6378,
			"joins": 6379,
			"idaho": 6380,
			"103": 6381,
			"mortal": 6382,
			"tucker": 6383,
			"choices": 6384,
			"yu": 6385,
			"1800": 6386,
			"os": 6387,
			"pretend": 6388,
			"dimension": 6389,
			"plateau": 6390,
			"maya": 6391,
			"##une": 6392,
			"##ids": 6393,
			"prospect": 6394,
			"##hus": 6395,
			"honestly": 6396,
			"thermal": 6397,
			"feast": 6398,
			"unlikely": 6399,
			"##tel": 6400,
			"morocco": 6401,
			"pounding": 6402,
			"considerably": 6403,
			"dish": 6404,
			"matching": 6405,
			"destroying": 6406,
			"brien": 6407,
			"cake": 6408,
			"belle": 6409,
			"settling": 6410,
			"measuring": 6411,
			"directing": 6412,
			"##mie": 6413,
			"tuesday": 6414,
			"capabilities": 6415,
			"torpedo": 6416,
			"##list": 6417,
			"anton": 6418,
			"ruined": 6419,
			"##ulate": 6420,
			"halls": 6421,
			"trend": 6422,
			"aka": 6423,
			"horizontal": 6424,
			"dozens": 6425,
			"acquire": 6426,
			"swim": 6427,
			"hawk": 6428,
			"gorgeous": 6429,
			"vicinity": 6430,
			"decrease": 6431,
			"##ole": 6432,
			"draws": 6433,
			"##hall": 6434,
			"heath": 6435,
			"integral": 6436,
			"powder": 6437,
			"tate": 6438,
			"varieties": 6439,
			"darker": 6440,
			"##cho": 6441,
			"cigarette": 6442,
			"adds": 6443,
			"##ree": 6444,
			"##inger": 6445,
			"cia": 6446,
			"wilderness": 6447,
			"manufacture": 6448,
			"robertson": 6449,
			"blog": 6450,
			"ai": 6451,
			"malta": 6452,
			"hosting": 6453,
			"rays": 6454,
			"tilted": 6455,
			"furious": 6456,
			"poison": 6457,
			"ridiculous": 6458,
			"##esh": 6459,
			"##room": 6460,
			"##ito": 6461,
			"##iness": 6462,
			"absent": 6463,
			"rotation": 6464,
			"janet": 6465,
			"satisfaction": 6466,
			"deliberately": 6467,
			"surfaces": 6468,
			"strictly": 6469,
			"monks": 6470,
			"embrace": 6471,
			"photograph": 6472,
			"marina": 6473,
			"doc": 6474,
			"excess": 6475,
			"stack": 6476,
			"avoiding": 6477,
			"lance": 6478,
			"spike": 6479,
			"dos": 6480,
			"classics": 6481,
			"proven": 6482,
			"pillow": 6483,
			"fists": 6484,
			"butt": 6485,
			"##car": 6486,
			"gage": 6487,
			"telegraph": 6488,
			"expelled": 6489,
			"casual": 6490,
			"zones": 6491,
			"##min": 6492,
			"silly": 6493,
			"##kh": 6494,
			"##bra": 6495,
			"chef": 6496,
			"suspicious": 6497,
			"afl": 6498,
			"flies": 6499,
			"vacant": 6500,
			"cheap": 6501,
			"stripped": 6502,
			"idiot": 6503,
			"deposits": 6504,
			"contrary": 6505,
			"glacier": 6506,
			"im": 6507,
			"##ori": 6508,
			"upright": 6509,
			"##long": 6510,
			"bolt": 6511,
			"##ois": 6512,
			"toss": 6513,
			"##izes": 6514,
			"delicate": 6515,
			"marking": 6516,
			"abstract": 6517,
			"nails": 6518,
			"plantation": 6519,
			"##stic": 6520,
			"sooner": 6521,
			"fusion": 6522,
			"opposing": 6523,
			"nato": 6524,
			"secretly": 6525,
			"ruin": 6526,
			"lease": 6527,
			"##oc": 6528,
			"##nne": 6529,
			"ruby": 6530,
			"##mia": 6531,
			"tel": 6532,
			"bout": 6533,
			"frost": 6534,
			"rainbow": 6535,
			"compounds": 6536,
			"dominican": 6537,
			"##win": 6538,
			"deserve": 6539,
			"intact": 6540,
			"##nte": 6541,
			"valentine": 6542,
			"106": 6543,
			"marion": 6544,
			"bells": 6545,
			"thigh": 6546,
			"gonzalez": 6547,
			"minimal": 6548,
			"monte": 6549,
			"everyday": 6550,
			"##ence": 6551,
			"##if": 6552,
			"buck": 6553,
			"carpet": 6554,
			"##iers": 6555,
			"rubbing": 6556,
			"##yi": 6557,
			"cute": 6558,
			"legally": 6559,
			"##cht": 6560,
			"cello": 6561,
			"ji": 6562,
			"concentrate": 6563,
			"beard": 6564,
			"rendered": 6565,
			"glowing": 6566,
			"scouts": 6567,
			"catalogue": 6568,
			"arctic": 6569,
			"ion": 6570,
			"raja": 6571,
			"bicycle": 6572,
			"wow": 6573,
			"glancing": 6574,
			"lawn": 6575,
			"gentleman": 6576,
			"lighthouse": 6577,
			"calculated": 6578,
			"##val": 6579,
			"##gne": 6580,
			"strain": 6581,
			"##ui": 6582,
			"sinking": 6583,
			"crush": 6584,
			"hon": 6585,
			"blessed": 6586,
			"editors": 6587,
			"##tine": 6588,
			"estimate": 6589,
			"responsibilities": 6590,
			"##mel": 6591,
			"backup": 6592,
			"laying": 6593,
			"consumed": 6594,
			"sealed": 6595,
			"zurich": 6596,
			"lovers": 6597,
			"##eau": 6598,
			"mit": 6599,
			"1832": 6600,
			"refuse": 6601,
			"pump": 6602,
			"genuine": 6603,
			"refuses": 6604,
			"plymouth": 6605,
			"##hen": 6606,
			"lou": 6607,
			"tara": 6608,
			"trembling": 6609,
			"ton": 6610,
			"##tas": 6611,
			"crucial": 6612,
			"atop": 6613,
			"##borough": 6614,
			"wrap": 6615,
			"lancaster": 6616,
			"lyon": 6617,
			"##eon": 6618,
			"bros": 6619,
			"##ode": 6620,
			"snap": 6621,
			"tips": 6622,
			"empress": 6623,
			"crowned": 6624,
			"cal": 6625,
			"##ory": 6626,
			"clara": 6627,
			"mild": 6628,
			"towel": 6629,
			"##fl": 6630,
			"##day": 6631,
			"##а": 6632,
			"wishing": 6633,
			"assuming": 6634,
			"##bal": 6635,
			"##die": 6636,
			"eden": 6637,
			"cups": 6638,
			"##lf": 6639,
			"##fire": 6640,
			"filipino": 6641,
			"parted": 6642,
			"##lam": 6643,
			"traces": 6644,
			"rows": 6645,
			"##ees": 6646,
			"##sar": 6647,
			"##ex": 6648,
			"instructed": 6649,
			"suggestion": 6650,
			"beats": 6651,
			"alright": 6652,
			"intimate": 6653,
			"pockets": 6654,
			"repairs": 6655,
			"underlying": 6656,
			"counting": 6657,
			"##bb": 6658,
			"##и": 6659,
			"keen": 6660,
			"bacteria": 6661,
			"separately": 6662,
			"450": 6663,
			"lithuanian": 6664,
			"ribs": 6665,
			"sphere": 6666,
			"cock": 6667,
			"fragments": 6668,
			"##fs": 6669,
			"fin": 6670,
			"alpine": 6671,
			"matched": 6672,
			"freely": 6673,
			"sleeve": 6674,
			"##af": 6675,
			"pier": 6676,
			"evident": 6677,
			"##like": 6678,
			"flooded": 6679,
			"##dle": 6680,
			"pour": 6681,
			"framed": 6682,
			"challenging": 6683,
			"pig": 6684,
			"##fold": 6685,
			"infected": 6686,
			"email": 6687,
			"##pes": 6688,
			"##aw": 6689,
			"reward": 6690,
			"ecuador": 6691,
			"vale": 6692,
			"ch": 6693,
			"shuttle": 6694,
			"##usa": 6695,
			"forbidden": 6696,
			"salem": 6697,
			"bruno": 6698,
			"fantastic": 6699,
			"toes": 6700,
			"machinery": 6701,
			"remembering": 6702,
			"iceland": 6703,
			"tide": 6704,
			"wives": 6705,
			"##rah": 6706,
			"implement": 6707,
			"daisy": 6708,
			"tapped": 6709,
			"angela": 6710,
			"##lic": 6711,
			"crop": 6712,
			"sunk": 6713,
			"finest": 6714,
			"##craft": 6715,
			"##ute": 6716,
			"##tsu": 6717,
			"fr": 6718,
			"adjusted": 6719,
			"ballot": 6720,
			"##zen": 6721,
			"sunset": 6722,
			"disappear": 6723,
			"lamp": 6724,
			"app": 6725,
			"##gia": 6726,
			"##oa": 6727,
			"rabbit": 6728,
			"digging": 6729,
			"##cion": 6730,
			"dishes": 6731,
			"##oi": 6732,
			"introducing": 6733,
			"##ati": 6734,
			"##fied": 6735,
			"slot": 6736,
			"backs": 6737,
			"##iest": 6738,
			"lone": 6739,
			"altogether": 6740,
			"convert": 6741,
			"##aro": 6742,
			"shapes": 6743,
			"basically": 6744,
			"##bing": 6745,
			"strongest": 6746,
			"smallest": 6747,
			"precise": 6748,
			"viola": 6749,
			"##los": 6750,
			"##ille": 6751,
			"##illo": 6752,
			"ari": 6753,
			"blades": 6754,
			"maiden": 6755,
			"##end": 6756,
			"berry": 6757,
			"airing": 6758,
			"wheat": 6759,
			"inclusion": 6760,
			"bee": 6761,
			"cc": 6762,
			"react": 6763,
			"##yu": 6764,
			"su": 6765,
			"lineup": 6766,
			"##dis": 6767,
			"##row": 6768,
			"##cast": 6769,
			"infant": 6770,
			"roses": 6771,
			"##yer": 6772,
			"ladder": 6773,
			"##hy": 6774,
			"popped": 6775,
			"reliable": 6776,
			"curves": 6777,
			"220": 6778,
			"rao": 6779,
			"decreased": 6780,
			"choosing": 6781,
			"107": 6782,
			"stiff": 6783,
			"ka": 6784,
			"ribbon": 6785,
			"crushed": 6786,
			"unified": 6787,
			"flagship": 6788,
			"poles": 6789,
			"skilled": 6790,
			"flee": 6791,
			"tragedy": 6792,
			"swallow": 6793,
			"loading": 6794,
			"demonstrate": 6795,
			"##ela": 6796,
			"salvador": 6797,
			"##ines": 6798,
			"rhodes": 6799,
			"knocking": 6800,
			"##ough": 6801,
			"nash": 6802,
			"mentally": 6803,
			"walt": 6804,
			"##eus": 6805,
			"##cks": 6806,
			"##hin": 6807,
			"monkey": 6808,
			"##ben": 6809,
			"##ato": 6810,
			"grasp": 6811,
			"damp": 6812,
			"##rg": 6813,
			"##ero": 6814,
			"newman": 6815,
			"##lor": 6816,
			"curiosity": 6817,
			"graph": 6818,
			"115": 6819,
			"##ami": 6820,
			"withdraw": 6821,
			"dull": 6822,
			"meredith": 6823,
			"moss": 6824,
			"neighbors": 6825,
			"accuracy": 6826,
			"kat": 6827,
			"penny": 6828,
			"##tch": 6829,
			"freed": 6830,
			"conviction": 6831,
			"ham": 6832,
			"likewise": 6833,
			"doll": 6834,
			"promises": 6835,
			"##mark": 6836,
			"sharon": 6837,
			"dig": 6838,
			"sip": 6839,
			"fold": 6840,
			"##dine": 6841,
			"blown": 6842,
			"swan": 6843,
			"canvas": 6844,
			"keeper": 6845,
			"##hart": 6846,
			"speedway": 6847,
			"maxwell": 6848,
			"potter": 6849,
			"##nn": 6850,
			"##ave": 6851,
			"##oni": 6852,
			"##²": 6853,
			"claws": 6854,
			"##ations": 6855,
			"ink": 6856,
			"##tia": 6857,
			"108": 6858,
			"noel": 6859,
			"##cation": 6860,
			"chill": 6861,
			"tu": 6862,
			"preventing": 6863,
			"limbs": 6864,
			"frog": 6865,
			"rene": 6866,
			"##ace": 6867,
			"pizza": 6868,
			"##ios": 6869,
			"##vy": 6870,
			"molecules": 6871,
			"answering": 6872,
			"opinions": 6873,
			"lengths": 6874,
			"supposedly": 6875,
			"upward": 6876,
			"seating": 6877,
			"yield": 6878,
			"modest": 6879,
			"##var": 6880,
			"mothers": 6881,
			"homeland": 6882,
			"##the": 6883,
			"valve": 6884,
			"alto": 6885,
			"carroll": 6886,
			"fe": 6887,
			"##tian": 6888,
			"elephant": 6889,
			"badge": 6890,
			"distinguish": 6891,
			"precisely": 6892,
			"crowded": 6893,
			"##10": 6894,
			"jeffrey": 6895,
			"##fication": 6896,
			"membrane": 6897,
			"rectangular": 6898,
			"heating": 6899,
			"basket": 6900,
			"##ple": 6901,
			"proportion": 6902,
			"shoe": 6903,
			"sec": 6904,
			"##ller": 6905,
			"blacks": 6906,
			"abandon": 6907,
			"remind": 6908,
			"sizes": 6909,
			"##awa": 6910,
			"risks": 6911,
			"countryside": 6912,
			"babies": 6913,
			"enclosed": 6914,
			"proceed": 6915,
			"disorders": 6916,
			"##cu": 6917,
			"continuously": 6918,
			"ore": 6919,
			"maid": 6920,
			"blocking": 6921,
			"jorge": 6922,
			"shakes": 6923,
			"dove": 6924,
			"mann": 6925,
			"accompanying": 6926,
			"que": 6927,
			"consistently": 6928,
			"endless": 6929,
			"##rm": 6930,
			"tubes": 6931,
			"juice": 6932,
			"georges": 6933,
			"labels": 6934,
			"##uch": 6935,
			"laps": 6936,
			"sage": 6937,
			"snail": 6938,
			"##table": 6939,
			"fi": 6940,
			"presenting": 6941,
			"surprisingly": 6942,
			"savannah": 6943,
			"technically": 6944,
			"##oli": 6945,
			"170": 6946,
			"##lessly": 6947,
			"suited": 6948,
			"speeds": 6949,
			"toys": 6950,
			"romans": 6951,
			"flowering": 6952,
			"measurement": 6953,
			"talented": 6954,
			"kay": 6955,
			"settings": 6956,
			"charleston": 6957,
			"expectations": 6958,
			"shattered": 6959,
			"achieving": 6960,
			"lanes": 6961,
			"mandatory": 6962,
			"stretching": 6963,
			"seventy": 6964,
			"webb": 6965,
			"##ulating": 6966,
			"ava": 6967,
			"##ison": 6968,
			"yo": 6969,
			"##hai": 6970,
			"sterling": 6971,
			"##az": 6972,
			"transform": 6973,
			"organize": 6974,
			"volcanic": 6975,
			"slender": 6976,
			"rhine": 6977,
			"commands": 6978,
			"sings": 6979,
			"facilitate": 6980,
			"easter": 6981,
			"ra": 6982,
			"positioned": 6983,
			"fruits": 6984,
			"imported": 6985,
			"velvet": 6986,
			"vic": 6987,
			"donna": 6988,
			"rip": 6989,
			"hay": 6990,
			"pr": 6991,
			"##uro": 6992,
			"highland": 6993,
			"timing": 6994,
			"shells": 6995,
			"geometry": 6996,
			"exciting": 6997,
			"##sion": 6998,
			"##iz": 6999,
			"##lot": 7000,
			"savings": 7001,
			"prairie": 7002,
			"##ques": 7003,
			"##lled": 7004,
			"curtain": 7005,
			"preceding": 7006,
			"shy": 7007,
			"heal": 7008,
			"greene": 7009,
			"worthy": 7010,
			"##pot": 7011,
			"bury": 7012,
			"##eck": 7013,
			"seeks": 7014,
			"bottles": 7015,
			"duchess": 7016,
			"outfit": 7017,
			"##sc": 7018,
			"##ase": 7019,
			"archer": 7020,
			"squeeze": 7021,
			"eliminate": 7022,
			"neal": 7023,
			"##eth": 7024,
			"dealer": 7025,
			"coral": 7026,
			"maple": 7027,
			"polo": 7028,
			"##ht": 7029,
			"watts": 7030,
			"backwards": 7031,
			"jules": 7032,
			"##oke": 7033,
			"genesis": 7034,
			"mt": 7035,
			"frames": 7036,
			"woodland": 7037,
			"moist": 7038,
			"drained": 7039,
			"##aa": 7040,
			"streaming": 7041,
			"burnt": 7042,
			"denis": 7043,
			"##load": 7044,
			"suits": 7045,
			"placement": 7046,
			"sovereign": 7047,
			"sketch": 7048,
			"lets": 7049,
			"rotten": 7050,
			"charm": 7051,
			"hal": 7052,
			"ultra": 7053,
			"commercially": 7054,
			"dot": 7055,
			"salon": 7056,
			"adopt": 7057,
			"mist": 7058,
			"##boy": 7059,
			"jenkins": 7060,
			"interference": 7061,
			"##wind": 7062,
			"##eh": 7063,
			"exercises": 7064,
			"tap": 7065,
			"ab": 7066,
			"##tones": 7067,
			"distracted": 7068,
			"111": 7069,
			"tended": 7070,
			"cart": 7071,
			"##eri": 7072,
			"diplomat": 7073,
			"gravel": 7074,
			"##try": 7075,
			"chang": 7076,
			"shepherd": 7077,
			"pupil": 7078,
			"##ural": 7079,
			"reflects": 7080,
			"ups": 7081,
			"##rch": 7082,
			"shelf": 7083,
			"depths": 7084,
			"trailed": 7085,
			"crest": 7086,
			"##nian": 7087,
			"##ats": 7088,
			"clare": 7089,
			"makers": 7090,
			"embedded": 7091,
			"lacking": 7092,
			"rely": 7093,
			"iso": 7094,
			"morton": 7095,
			"successive": 7096,
			"straightened": 7097,
			"philippe": 7098,
			"haunted": 7099,
			"iris": 7100,
			"sutton": 7101,
			"112": 7102,
			"correctly": 7103,
			"##weight": 7104,
			"branded": 7105,
			"tipped": 7106,
			"##ents": 7107,
			"cow": 7108,
			"lung": 7109,
			"liner": 7110,
			"##piece": 7111,
			"##mba": 7112,
			"harvest": 7113,
			"prints": 7114,
			"reluctantly": 7115,
			"ira": 7116,
			"wherever": 7117,
			"240": 7118,
			"picks": 7119,
			"##air": 7120,
			"gentlemen": 7121,
			"##ean": 7122,
			"roller": 7123,
			"blowing": 7124,
			"locks": 7125,
			"screw": 7126,
			"dressing": 7127,
			"strand": 7128,
			"##lings": 7129,
			"scar": 7130,
			"dwarf": 7131,
			"##nu": 7132,
			"##mine": 7133,
			"differ": 7134,
			"##eur": 7135,
			"yuan": 7136,
			"flip": 7137,
			"##gie": 7138,
			"mob": 7139,
			"invested": 7140,
			"applying": 7141,
			"##ture": 7142,
			"##sel": 7143,
			"illustrations": 7144,
			"##of": 7145,
			"##zes": 7146,
			"envelope": 7147,
			"leicester": 7148,
			"subtle": 7149,
			"kerry": 7150,
			"##ico": 7151,
			"##fu": 7152,
			"ne": 7153,
			"##cat": 7154,
			"bengali": 7155,
			"prof": 7156,
			"catches": 7157,
			"remnants": 7158,
			"dana": 7159,
			"##rily": 7160,
			"ghosts": 7161,
			"dances": 7162,
			"fancy": 7163,
			"##bie": 7164,
			"bark": 7165,
			"buttons": 7166,
			"ashes": 7167,
			"liver": 7168,
			"oath": 7169,
			"cement": 7170,
			"hatch": 7171,
			"surroundings": 7172,
			"guarantee": 7173,
			"pirate": 7174,
			"essence": 7175,
			"##bee": 7176,
			"filter": 7177,
			"crane": 7178,
			"immune": 7179,
			"##ichi": 7180,
			"lu": 7181,
			"elect": 7182,
			"steadily": 7183,
			"kirk": 7184,
			"wa": 7185,
			"##rra": 7186,
			"mc": 7187,
			"surprising": 7188,
			"statues": 7189,
			"availability": 7190,
			"shirts": 7191,
			"pie": 7192,
			"alma": 7193,
			"munster": 7194,
			"mack": 7195,
			"soup": 7196,
			"crater": 7197,
			"cedar": 7198,
			"explosive": 7199,
			"bordered": 7200,
			"dixon": 7201,
			"stamp": 7202,
			"happily": 7203,
			"##bble": 7204,
			"##vis": 7205,
			"##met": 7206,
			"peaks": 7207,
			"lang": 7208,
			"pottery": 7209,
			"ki": 7210,
			"debris": 7211,
			"##20": 7212,
			"teddy": 7213,
			"##ants": 7214,
			"##nger": 7215,
			"##sse": 7216,
			"dental": 7217,
			"coloured": 7218,
			"lin": 7219,
			"##gio": 7220,
			"asset": 7221,
			"fitting": 7222,
			"wei": 7223,
			"rim": 7224,
			"beloved": 7225,
			"shark": 7226,
			"riot": 7227,
			"slipping": 7228,
			"neighbor": 7229,
			"##av": 7230,
			"rats": 7231,
			"recommendations": 7232,
			"encouraging": 7233,
			"##oto": 7234,
			"##mond": 7235,
			"divide": 7236,
			"##iva": 7237,
			"guessed": 7238,
			"decoration": 7239,
			"revelation": 7240,
			"##kers": 7241,
			"##power": 7242,
			"dash": 7243,
			"lateral": 7244,
			"herman": 7245,
			"mg": 7246,
			"##gent": 7247,
			"mel": 7248,
			"crow": 7249,
			"crimson": 7250,
			"##rine": 7251,
			"##pped": 7252,
			"oz": 7253,
			"whip": 7254,
			"##ali": 7255,
			"alter": 7256,
			"spelled": 7257,
			"anxious": 7258,
			"oriental": 7259,
			"##nin": 7260,
			"##hole": 7261,
			"carnival": 7262,
			"detect": 7263,
			"##ssa": 7264,
			"bowed": 7265,
			"##sin": 7266,
			"occupy": 7267,
			"para": 7268,
			"noon": 7269,
			"135": 7270,
			"cam": 7271,
			"hopefully": 7272,
			"combine": 7273,
			"rica": 7274,
			"##eer": 7275,
			"##sman": 7276,
			"##ip": 7277,
			"doubled": 7278,
			"lust": 7279,
			"109": 7280,
			"decent": 7281,
			"cooling": 7282,
			"##card": 7283,
			"homer": 7284,
			"meyer": 7285,
			"##gin": 7286,
			"dive": 7287,
			"mae": 7288,
			"##gled": 7289,
			"sided": 7290,
			"petroleum": 7291,
			"reluctant": 7292,
			"differently": 7293,
			"vegetables": 7294,
			"corpse": 7295,
			"elegant": 7296,
			"ivory": 7297,
			"sunny": 7298,
			"babe": 7299,
			"click": 7300,
			"##nder": 7301,
			"underwater": 7302,
			"pepper": 7303,
			"combining": 7304,
			"horns": 7305,
			"freak": 7306,
			"warn": 7307,
			"decorative": 7308,
			"overnight": 7309,
			"din": 7310,
			"troubled": 7311,
			"##ort": 7312,
			"sheer": 7313,
			"guidelines": 7314,
			"organs": 7315,
			"##zon": 7316,
			"enhance": 7317,
			"curling": 7318,
			"cord": 7319,
			"##kie": 7320,
			"caesar": 7321,
			"bavaria": 7322,
			"##bia": 7323,
			"coleman": 7324,
			"##eria": 7325,
			"bacon": 7326,
			"##old": 7327,
			"throws": 7328,
			"complexity": 7329,
			"##₃": 7330,
			"##sch": 7331,
			"marketed": 7332,
			"examine": 7333,
			"##oh": 7334,
			"faithful": 7335,
			"##ox": 7336,
			"highlights": 7337,
			"##ient": 7338,
			"##ann": 7339,
			"vacuum": 7340,
			"sandwich": 7341,
			"modeling": 7342,
			"qualities": 7343,
			"##nas": 7344,
			"##ars": 7345,
			"bra": 7346,
			"##ancy": 7347,
			"##rate": 7348,
			"tattoo": 7349,
			"container": 7350,
			"poker": 7351,
			"##och": 7352,
			"excessive": 7353,
			"cowboys": 7354,
			"trash": 7355,
			"void": 7356,
			"masses": 7357,
			"leap": 7358,
			"santo": 7359,
			"pad": 7360,
			"thread": 7361,
			"##dian": 7362,
			"beg": 7363,
			"punched": 7364,
			"analog": 7365,
			"stroked": 7366,
			"acceptable": 7367,
			"measurements": 7368,
			"dec": 7369,
			"toxic": 7370,
			"##kel": 7371,
			"adequate": 7372,
			"quantity": 7373,
			"ella": 7374,
			"##chy": 7375,
			"##rton": 7376,
			"precision": 7377,
			"diamonds": 7378,
			"ga": 7379,
			"##ı": 7380,
			"outlets": 7381,
			"##ila": 7382,
			"##bon": 7383,
			"dim": 7384,
			"fangs": 7385,
			"gown": 7386,
			"sweep": 7387,
			"##sie": 7388,
			"websites": 7389,
			"val": 7390,
			"trademark": 7391,
			"##plane": 7392,
			"patience": 7393,
			"starter": 7394,
			"slim": 7395,
			"toe": 7396,
			"incredibly": 7397,
			"shoots": 7398,
			"elliot": 7399,
			"cowboy": 7400,
			"endorsed": 7401,
			"tendency": 7402,
			"amused": 7403,
			"boring": 7404,
			"chips": 7405,
			"themed": 7406,
			"##hand": 7407,
			"##hard": 7408,
			"struggles": 7409,
			"##ifying": 7410,
			"##ced": 7411,
			"wong": 7412,
			"exceptions": 7413,
			"develops": 7414,
			"##ern": 7415,
			"##rina": 7416,
			"zombie": 7417,
			"##most": 7418,
			"##nar": 7419,
			"sailor": 7420,
			"nasty": 7421,
			"useless": 7422,
			"stuffed": 7423,
			"ix": 7424,
			"230": 7425,
			"##dge": 7426,
			"swinging": 7427,
			"cove": 7428,
			"##ash": 7429,
			"dairy": 7430,
			"bypass": 7431,
			"190": 7432,
			"bug": 7433,
			"bombay": 7434,
			"chat": 7435,
			"##pen": 7436,
			"pray": 7437,
			"salmon": 7438,
			"rigid": 7439,
			"malaysian": 7440,
			"capturing": 7441,
			"purely": 7442,
			"tray": 7443,
			"drift": 7444,
			"loosely": 7445,
			"weakened": 7446,
			"ming": 7447,
			"scarlet": 7448,
			"nodding": 7449,
			"fu": 7450,
			"sp": 7451,
			"tooth": 7452,
			"virtue": 7453,
			"##₁": 7454,
			"##cting": 7455,
			"chateau": 7456,
			"gloves": 7457,
			"lid": 7458,
			"##nel": 7459,
			"##pel": 7460,
			"optional": 7461,
			"##rc": 7462,
			"suck": 7463,
			"compatible": 7464,
			"laurel": 7465,
			"stella": 7466,
			"shi": 7467,
			"dodge": 7468,
			"128": 7469,
			"informal": 7470,
			"sorts": 7471,
			"levi": 7472,
			"buddha": 7473,
			"##aka": 7474,
			"heavier": 7475,
			"jewelry": 7476,
			"accordingly": 7477,
			"seas": 7478,
			"##ency": 7479,
			"fiber": 7480,
			"pyramid": 7481,
			"dragging": 7482,
			"##ista": 7483,
			"##ops": 7484,
			"##dt": 7485,
			"kai": 7486,
			"patted": 7487,
			"madagascar": 7488,
			"ta": 7489,
			"holidays": 7490,
			"piper": 7491,
			"willow": 7492,
			"mare": 7493,
			"cane": 7494,
			"newfoundland": 7495,
			"companions": 7496,
			"dong": 7497,
			"raj": 7498,
			"observe": 7499,
			"charming": 7500,
			"tibetan": 7501,
			"bubble": 7502,
			"##hir": 7503,
			"funk": 7504,
			"swamp": 7505,
			"cloak": 7506,
			"scenario": 7507,
			"par": 7508,
			"scratch": 7509,
			"guru": 7510,
			"specially": 7511,
			"##boat": 7512,
			"##lies": 7513,
			"drainage": 7514,
			"puzzle": 7515,
			"honda": 7516,
			"switching": 7517,
			"knox": 7518,
			"sidewalk": 7519,
			"cope": 7520,
			"##ried": 7521,
			"##sal": 7522,
			"sharks": 7523,
			"eli": 7524,
			"wreck": 7525,
			"compromise": 7526,
			"waving": 7527,
			"coordination": 7528,
			"possibilities": 7529,
			"jun": 7530,
			"fernandez": 7531,
			"enthusiasm": 7532,
			"##fy": 7533,
			"##nal": 7534,
			"applies": 7535,
			"verb": 7536,
			"celebrations": 7537,
			"##zzo": 7538,
			"lightweight": 7539,
			"balanced": 7540,
			"##vas": 7541,
			"magnificent": 7542,
			"mound": 7543,
			"irregular": 7544,
			"##hing": 7545,
			"##ass": 7546,
			"shipped": 7547,
			"bulls": 7548,
			"enabling": 7549,
			"##are": 7550,
			"sicily": 7551,
			"sting": 7552,
			"heel": 7553,
			"sweetheart": 7554,
			"bart": 7555,
			"brutal": 7556,
			"##tter": 7557,
			"aberdeen": 7558,
			"cameo": 7559,
			"diane": 7560,
			"##ub": 7561,
			"complaint": 7562,
			"##makers": 7563,
			"delicious": 7564,
			"chilean": 7565,
			"##rst": 7566,
			"pretending": 7567,
			"ar": 7568,
			"dramatically": 7569,
			"kiev": 7570,
			"bella": 7571,
			"tends": 7572,
			"distances": 7573,
			"113": 7574,
			"portable": 7575,
			"lindsay": 7576,
			"angles": 7577,
			"marker": 7578,
			"stint": 7579,
			"screens": 7580,
			"##rne": 7581,
			"judy": 7582,
			"wool": 7583,
			"benedict": 7584,
			"spark": 7585,
			"swiftly": 7586,
			"##een": 7587,
			"##nor": 7588,
			"stamps": 7589,
			"butter": 7590,
			"sophisticated": 7591,
			"chemicals": 7592,
			"##ils": 7593,
			"wrists": 7594,
			"gains": 7595,
			"##wo": 7596,
			"papal": 7597,
			"preference": 7598,
			"brewery": 7599,
			"##ont": 7600,
			"##ured": 7601,
			"##outs": 7602,
			"albeit": 7603,
			"bi": 7604,
			"##rr": 7605,
			"##face": 7606,
			"##rad": 7607,
			"cleaned": 7608,
			"temper": 7609,
			"##llen": 7610,
			"jerk": 7611,
			"menu": 7612,
			"##ote": 7613,
			"##aya": 7614,
			"hawaiian": 7615,
			"##rl": 7616,
			"readily": 7617,
			"##gu": 7618,
			"watches": 7619,
			"needle": 7620,
			"lea": 7621,
			"encyclopedia": 7622,
			"flank": 7623,
			"fingertips": 7624,
			"delight": 7625,
			"confirm": 7626,
			"roth": 7627,
			"midway": 7628,
			"teasing": 7629,
			"##backs": 7630,
			"regulated": 7631,
			"clement": 7632,
			"tricks": 7633,
			"knot": 7634,
			"##shing": 7635,
			"##uring": 7636,
			"##vre": 7637,
			"detached": 7638,
			"specialty": 7639,
			"bats": 7640,
			"stays": 7641,
			"trim": 7642,
			"##rry": 7643,
			"thoroughly": 7644,
			"##uma": 7645,
			"strained": 7646,
			"wrapping": 7647,
			"mon": 7648,
			"leisure": 7649,
			"##tate": 7650,
			"##ele": 7651,
			"feathers": 7652,
			"angelo": 7653,
			"thirds": 7654,
			"nuts": 7655,
			"clever": 7656,
			"gill": 7657,
			"##dos": 7658,
			"rides": 7659,
			"##nc": 7660,
			"##mu": 7661,
			"shin": 7662,
			"meals": 7663,
			"saddle": 7664,
			"reds": 7665,
			"taller": 7666,
			"favored": 7667,
			"suffolk": 7668,
			"vera": 7669,
			"##rov": 7670,
			"nora": 7671,
			"cumberland": 7672,
			"ned": 7673,
			"saga": 7674,
			"spiral": 7675,
			"##flow": 7676,
			"yi": 7677,
			"treating": 7678,
			"finishes": 7679,
			"##ib": 7680,
			"jade": 7681,
			"import": 7682,
			"##nse": 7683,
			"##hot": 7684,
			"champagne": 7685,
			"mice": 7686,
			"securing": 7687,
			"##gos": 7688,
			"lucia": 7689,
			"submission": 7690,
			"spear": 7691,
			"shine": 7692,
			"biting": 7693,
			"tighter": 7694,
			"seasonal": 7695,
			"##gus": 7696,
			"##oka": 7697,
			"##onic": 7698,
			"guaranteed": 7699,
			"shifts": 7700,
			"inform": 7701,
			"broader": 7702,
			"armour": 7703,
			"incorporates": 7704,
			"##50": 7705,
			"##ein": 7706,
			"handball": 7707,
			"flexible": 7708,
			"##nta": 7709,
			"substantially": 7710,
			"generous": 7711,
			"##own": 7712,
			"carr": 7713,
			"loses": 7714,
			"prose": 7715,
			"romeo": 7716,
			"metallic": 7717,
			"damages": 7718,
			"##ther": 7719,
			"lengthy": 7720,
			"stems": 7721,
			"spa": 7722,
			"rogue": 7723,
			"indication": 7724,
			"teresa": 7725,
			"sen": 7726,
			"##tric": 7727,
			"##wich": 7728,
			"##vey": 7729,
			"peters": 7730,
			"excluded": 7731,
			"unsure": 7732,
			"##vable": 7733,
			"patterson": 7734,
			"##zio": 7735,
			"whipped": 7736,
			"slower": 7737,
			"pipes": 7738,
			"comparable": 7739,
			"va": 7740,
			"##gel": 7741,
			"alphabet": 7742,
			"irrigation": 7743,
			"supplement": 7744,
			"quantities": 7745,
			"regain": 7746,
			"locate": 7747,
			"folks": 7748,
			"alt": 7749,
			"114": 7750,
			"##mc": 7751,
			"scary": 7752,
			"whites": 7753,
			"##ava": 7754,
			"aesthetic": 7755,
			"valleys": 7756,
			"guides": 7757,
			"cubs": 7758,
			"##itt": 7759,
			"drain": 7760,
			"awesome": 7761,
			"ambitious": 7762,
			"downs": 7763,
			"lorenzo": 7764,
			"aisle": 7765,
			"beef": 7766,
			"##onia": 7767,
			"kidding": 7768,
			"illusion": 7769,
			"##ffer": 7770,
			"emi": 7771,
			"melted": 7772,
			"##ail": 7773,
			"simulation": 7774,
			"progressed": 7775,
			"meantime": 7776,
			"spray": 7777,
			"breach": 7778,
			"##urg": 7779,
			"determining": 7780,
			"##tation": 7781,
			"##quin": 7782,
			"aging": 7783,
			"##12": 7784,
			"mister": 7785,
			"clip": 7786,
			"depend": 7787,
			"disco": 7788,
			"notorious": 7789,
			"shiny": 7790,
			"worcester": 7791,
			"##yr": 7792,
			"trailing": 7793,
			"fuller": 7794,
			"raphael": 7795,
			"synthetic": 7796,
			"breakdown": 7797,
			"##nate": 7798,
			"lamb": 7799,
			"arrows": 7800,
			"exotic": 7801,
			"witches": 7802,
			"117": 7803,
			"rey": 7804,
			"hut": 7805,
			"subdivision": 7806,
			"freshwater": 7807,
			"aloud": 7808,
			"reyes": 7809,
			"sideways": 7810,
			"utterly": 7811,
			"softball": 7812,
			"blend": 7813,
			"##gging": 7814,
			"##metric": 7815,
			"wholly": 7816,
			"lebanese": 7817,
			"negro": 7818,
			"tasted": 7819,
			"labeled": 7820,
			"gran": 7821,
			"malay": 7822,
			"121": 7823,
			"buzz": 7824,
			"salvation": 7825,
			"symbolic": 7826,
			"##making": 7827,
			"##gas": 7828,
			"##bro": 7829,
			"tones": 7830,
			"kin": 7831,
			"afghan": 7832,
			"emerge": 7833,
			"##zel": 7834,
			"##matic": 7835,
			"##quet": 7836,
			"motto": 7837,
			"spectacular": 7838,
			"remake": 7839,
			"##dell": 7840,
			"employ": 7841,
			"sticks": 7842,
			"meg": 7843,
			"gus": 7844,
			"##ude": 7845,
			"accompany": 7846,
			"##iko": 7847,
			"wages": 7848,
			"pools": 7849,
			"##nch": 7850,
			"##bes": 7851,
			"breasts": 7852,
			"outline": 7853,
			"brittany": 7854,
			"realistic": 7855,
			"##cut": 7856,
			"##stan": 7857,
			"pike": 7858,
			"picnic": 7859,
			"washing": 7860,
			"micro": 7861,
			"auburn": 7862,
			"##hat": 7863,
			"cycles": 7864,
			"applicable": 7865,
			"eternity": 7866,
			"##umi": 7867,
			"##lls": 7868,
			"modifications": 7869,
			"sweeping": 7870,
			"##uck": 7871,
			"torch": 7872,
			"aviv": 7873,
			"ensuring": 7874,
			"dusty": 7875,
			"cu": 7876,
			"##band": 7877,
			"##gun": 7878,
			"acids": 7879,
			"paired": 7880,
			"##40": 7881,
			"##sive": 7882,
			"##⁺": 7883,
			"folding": 7884,
			"instinct": 7885,
			"attained": 7886,
			"##ination": 7887,
			"dorsal": 7888,
			"ingredients": 7889,
			"##its": 7890,
			"brushing": 7891,
			"luc": 7892,
			"flicked": 7893,
			"pays": 7894,
			"volcano": 7895,
			"weighed": 7896,
			"crowds": 7897,
			"winding": 7898,
			"##rna": 7899,
			"slate": 7900,
			"##lio": 7901,
			"rouge": 7902,
			"sack": 7903,
			"freezing": 7904,
			"herb": 7905,
			"##dium": 7906,
			"twisting": 7907,
			"deposit": 7908,
			"touches": 7909,
			"vein": 7910,
			"wheeler": 7911,
			"##bbled": 7912,
			"##bor": 7913,
			"batted": 7914,
			"retaining": 7915,
			"tire": 7916,
			"presently": 7917,
			"compare": 7918,
			"nigel": 7919,
			"##grave": 7920,
			"recommendation": 7921,
			"ng": 7922,
			"roma": 7923,
			"##sts": 7924,
			"lambert": 7925,
			"winchester": 7926,
			"examining": 7927,
			"cuisine": 7928,
			"nave": 7929,
			"##iv": 7930,
			"ko": 7931,
			"retrieve": 7932,
			"tomatoes": 7933,
			"polished": 7934,
			"lantern": 7935,
			"personalities": 7936,
			"begging": 7937,
			"tract": 7938,
			"175": 7939,
			"##ots": 7940,
			"##ete": 7941,
			"##zia": 7942,
			"pearson": 7943,
			"210": 7944,
			"##ef": 7945,
			"##rf": 7946,
			"premium": 7947,
			"bugs": 7948,
			"fraction": 7949,
			"calmly": 7950,
			"tug": 7951,
			"inserted": 7952,
			"crashing": 7953,
			"##olo": 7954,
			"cambodia": 7955,
			"sauce": 7956,
			"##kal": 7957,
			"116": 7958,
			"clusters": 7959,
			"quarry": 7960,
			"##lers": 7961,
			"##ister": 7962,
			"drill": 7963,
			"##ashi": 7964,
			"anita": 7965,
			"strengthen": 7966,
			"##cated": 7967,
			"lace": 7968,
			"##uted": 7969,
			"mint": 7970,
			"##eta": 7971,
			"preparations": 7972,
			"midst": 7973,
			"dub": 7974,
			"##vich": 7975,
			"mock": 7976,
			"cf": 7977,
			"enables": 7978,
			"##lum": 7979,
			"ag": 7980,
			"highlight": 7981,
			"josef": 7982,
			"sufficiently": 7983,
			"resembles": 7984,
			"##pal": 7985,
			"flushed": 7986,
			"mum": 7987,
			"##ante": 7988,
			"warming": 7989,
			"118": 7990,
			"celebrating": 7991,
			"cao": 7992,
			"lima": 7993,
			"strips": 7994,
			"snakes": 7995,
			"miniature": 7996,
			"escapes": 7997,
			"umbrella": 7998,
			"cooled": 7999,
			"cooked": 8000,
			"fade": 8001,
			"jacobs": 8002,
			"abundant": 8003,
			"boost": 8004,
			"madras": 8005,
			"##hia": 8006,
			"spur": 8007,
			"ip": 8008,
			"osaka": 8009,
			"escaping": 8010,
			"dose": 8011,
			"vista": 8012,
			"##aj": 8013,
			"bud": 8014,
			"papa": 8015,
			"edged": 8016,
			"tri": 8017,
			"##cent": 8018,
			"resemble": 8019,
			"peaking": 8020,
			"necklace": 8021,
			"fried": 8022,
			"montenegro": 8023,
			"goose": 8024,
			"recruit": 8025,
			"grocery": 8026,
			"##tting": 8027,
			"##fort": 8028,
			"127": 8029,
			"lotus": 8030,
			"succeeding": 8031,
			"macedonian": 8032,
			"##heads": 8033,
			"handing": 8034,
			"garbage": 8035,
			"##pies": 8036,
			"prone": 8037,
			"inclined": 8038,
			"italia": 8039,
			"pouring": 8040,
			"grandma": 8041,
			"corp": 8042,
			"aluminum": 8043,
			"ordering": 8044,
			"##foot": 8045,
			"drawer": 8046,
			"resistant": 8047,
			"fragile": 8048,
			"var": 8049,
			"soaked": 8050,
			"decisive": 8051,
			"poster": 8052,
			"valencia": 8053,
			"hale": 8054,
			"##ises": 8055,
			"##wr": 8056,
			"##eed": 8057,
			"122": 8058,
			"##uer": 8059,
			"amino": 8060,
			"gil": 8061,
			"##ury": 8062,
			"torres": 8063,
			"##sp": 8064,
			"folklore": 8065,
			"##keeper": 8066,
			"shooter": 8067,
			"fl": 8068,
			"##lling": 8069,
			"##gram": 8070,
			"aligned": 8071,
			"motorway": 8072,
			"decay": 8073,
			"##tos": 8074,
			"coffin": 8075,
			"##cott": 8076,
			"minded": 8077,
			"##nam": 8078,
			"purchasing": 8079,
			"additions": 8080,
			"straw": 8081,
			"123": 8082,
			"##iate": 8083,
			"christie": 8084,
			"##rich": 8085,
			"processor": 8086,
			"crescent": 8087,
			"##rol": 8088,
			"##eng": 8089,
			"saves": 8090,
			"turtle": 8091,
			"cone": 8092,
			"kara": 8093,
			"rusty": 8094,
			"greeks": 8095,
			"shades": 8096,
			"##tro": 8097,
			"spit": 8098,
			"freeze": 8099,
			"##cos": 8100,
			"uncommon": 8101,
			"daniels": 8102,
			"##sus": 8103,
			"liquor": 8104,
			"pratt": 8105,
			"##uta": 8106,
			"balloon": 8107,
			"##zz": 8108,
			"camping": 8109,
			"casually": 8110,
			"judged": 8111,
			"knives": 8112,
			"##lice": 8113,
			"eclipse": 8114,
			"cease": 8115,
			"cultivated": 8116,
			"browns": 8117,
			"##ania": 8118,
			"meadow": 8119,
			"minerals": 8120,
			"##cial": 8121,
			"gram": 8122,
			"baha": 8123,
			"fare": 8124,
			"invite": 8125,
			"tiles": 8126,
			"incorporate": 8127,
			"facial": 8128,
			"mollusk": 8129,
			"550": 8130,
			"raises": 8131,
			"ramp": 8132,
			"##rose": 8133,
			"tops": 8134,
			"119": 8135,
			"##rous": 8136,
			"##inal": 8137,
			"annexed": 8138,
			"##ished": 8139,
			"normandy": 8140,
			"stoke": 8141,
			"whistle": 8142,
			"blessing": 8143,
			"holders": 8144,
			"tires": 8145,
			"tearing": 8146,
			"shores": 8147,
			"fortified": 8148,
			"columnist": 8149,
			"##rta": 8150,
			"hooked": 8151,
			"oct": 8152,
			"##gger": 8153,
			"hansen": 8154,
			"kashmir": 8155,
			"triggered": 8156,
			"##eva": 8157,
			"##tree": 8158,
			"transparent": 8159,
			"injection": 8160,
			"excluding": 8161,
			"##mbo": 8162,
			"##elli": 8163,
			"weber": 8164,
			"plug": 8165,
			"##iff": 8166,
			"convincing": 8167,
			"swimmer": 8168,
			"barber": 8169,
			"leone": 8170,
			"promptly": 8171,
			"sodium": 8172,
			"def": 8173,
			"nowadays": 8174,
			"arise": 8175,
			"gloucester": 8176,
			"corrected": 8177,
			"norm": 8178,
			"##ders": 8179,
			"sylvia": 8180,
			"accepts": 8181,
			"wipe": 8182,
			"millimetres": 8183,
			"marcel": 8184,
			"##oda": 8185,
			"dodgers": 8186,
			"albion": 8187,
			"overwhelmed": 8188,
			"ashe": 8189,
			"hurts": 8190,
			"fashioned": 8191,
			"swollen": 8192,
			"marquis": 8193,
			"124": 8194,
			"rue": 8195,
			"commemorate": 8196,
			"reduces": 8197,
			"inevitable": 8198,
			"calcutta": 8199,
			"sticking": 8200,
			"bloom": 8201,
			"280": 8202,
			"hesitation": 8203,
			"memorable": 8204,
			"po": 8205,
			"beans": 8206,
			"spilled": 8207,
			"perimeter": 8208,
			"apex": 8209,
			"lil": 8210,
			"trout": 8211,
			"##ously": 8212,
			"rams": 8213,
			"troubles": 8214,
			"##lets": 8215,
			"##set": 8216,
			"##ret": 8217,
			"exceed": 8218,
			"##vie": 8219,
			"##zan": 8220,
			"##ste": 8221,
			"sucking": 8222,
			"##wal": 8223,
			"europeans": 8224,
			"snails": 8225,
			"interval": 8226,
			"preparatory": 8227,
			"##hra": 8228,
			"flint": 8229,
			"teens": 8230,
			"patrons": 8231,
			"stall": 8232,
			"scrambled": 8233,
			"##bles": 8234,
			"##gt": 8235,
			"knuckles": 8236,
			"scars": 8237,
			"mat": 8238,
			"meadows": 8239,
			"bermuda": 8240,
			"skeleton": 8241,
			"vintage": 8242,
			"crawl": 8243,
			"coordinate": 8244,
			"affects": 8245,
			"##tc": 8246,
			"dipped": 8247,
			"260": 8248,
			"arches": 8249,
			"candle": 8250,
			"##nick": 8251,
			"incorporating": 8252,
			"wildly": 8253,
			"fond": 8254,
			"basilica": 8255,
			"owl": 8256,
			"fringe": 8257,
			"stirred": 8258,
			"feud": 8259,
			"slick": 8260,
			"goat": 8261,
			"skip": 8262,
			"stripes": 8263,
			"adjoining": 8264,
			"submerged": 8265,
			"intend": 8266,
			"ninety": 8267,
			"phi": 8268,
			"beaver": 8269,
			"partition": 8270,
			"prohibition": 8271,
			"carlisle": 8272,
			"##bre": 8273,
			"icy": 8274,
			"sneak": 8275,
			"combines": 8276,
			"crude": 8277,
			"supervised": 8278,
			"merge": 8279,
			"alfonso": 8280,
			"##bic": 8281,
			"scan": 8282,
			"undergo": 8283,
			"##ams": 8284,
			"colombian": 8285,
			"##lish": 8286,
			"reprinted": 8287,
			"hairs": 8288,
			"bucket": 8289,
			"sensor": 8290,
			"rotating": 8291,
			"arrange": 8292,
			"##idge": 8293,
			"##dr": 8294,
			"##nde": 8295,
			"rover": 8296,
			"ferrari": 8297,
			"counterpart": 8298,
			"gore": 8299,
			"##rda": 8300,
			"rican": 8301,
			"ave": 8302,
			"discovering": 8303,
			"nordic": 8304,
			"styled": 8305,
			"aiming": 8306,
			"##nto": 8307,
			"devils": 8308,
			"##wl": 8309,
			"##ool": 8310,
			"bliss": 8311,
			"repaired": 8312,
			"moan": 8313,
			"cr": 8314,
			"bred": 8315,
			"angus": 8316,
			"pbs": 8317,
			"##lk": 8318,
			"elbows": 8319,
			"strokes": 8320,
			"lifts": 8321,
			"lava": 8322,
			"alps": 8323,
			"##ep": 8324,
			"##ution": 8325,
			"##date": 8326,
			"woody": 8327,
			"##page": 8328,
			"juliet": 8329,
			"320": 8330,
			"complement": 8331,
			"jewel": 8332,
			"##½": 8333,
			"floated": 8334,
			"##kas": 8335,
			"sadly": 8336,
			"melting": 8337,
			"paula": 8338,
			"flour": 8339,
			"safer": 8340,
			"vague": 8341,
			"##lm": 8342,
			"gable": 8343,
			"bees": 8344,
			"cupped": 8345,
			"145": 8346,
			"resume": 8347,
			"ing": 8348,
			"pounded": 8349,
			"usd": 8350,
			"##aux": 8351,
			"darkened": 8352,
			"270": 8353,
			"650": 8354,
			"##mere": 8355,
			"risen": 8356,
			"dial": 8357,
			"##eu": 8358,
			"pillars": 8359,
			"##link": 8360,
			"passages": 8361,
			"##tina": 8362,
			"silicon": 8363,
			"nail": 8364,
			"##ead": 8365,
			"##lated": 8366,
			"##wer": 8367,
			"blows": 8368,
			"##lina": 8369,
			"atom": 8370,
			"fireplace": 8371,
			"cheshire": 8372,
			"##zzi": 8373,
			"catcher": 8374,
			"cherokee": 8375,
			"whiskey": 8376,
			"##late": 8377,
			"##nga": 8378,
			"##ake": 8379,
			"porto": 8380,
			"salisbury": 8381,
			"##ido": 8382,
			"intake": 8383,
			"barrels": 8384,
			"bias": 8385,
			"burnett": 8386,
			"##lal": 8387,
			"tai": 8388,
			"wax": 8389,
			"lowering": 8390,
			"freaking": 8391,
			"outright": 8392,
			"bald": 8393,
			"calcium": 8394,
			"myers": 8395,
			"tablet": 8396,
			"announcing": 8397,
			"##uan": 8398,
			"flush": 8399,
			"medley": 8400,
			"patches": 8401,
			"wolfgang": 8402,
			"pt": 8403,
			"##gg": 8404,
			"##type": 8405,
			"##pt": 8406,
			"abdomen": 8407,
			"capped": 8408,
			"paraguay": 8409,
			"##hman": 8410,
			"lorraine": 8411,
			"##ght": 8412,
			"##used": 8413,
			"despair": 8414,
			"sensors": 8415,
			"##eg": 8416,
			"##alis": 8417,
			"165": 8418,
			"basque": 8419,
			"seeded": 8420,
			"##ages": 8421,
			"vicious": 8422,
			"sunrise": 8423,
			"bays": 8424,
			"centimetres": 8425,
			"##uded": 8426,
			"gm": 8427,
			"##ppa": 8428,
			"seals": 8429,
			"proving": 8430,
			"##lton": 8431,
			"bust": 8432,
			"baghdad": 8433,
			"mara": 8434,
			"pushes": 8435,
			"spears": 8436,
			"og": 8437,
			"##cock": 8438,
			"markings": 8439,
			"yemen": 8440,
			"ku": 8441,
			"lazy": 8442,
			"catalan": 8443,
			"sawyer": 8444,
			"##fall": 8445,
			"substances": 8446,
			"dover": 8447,
			"tolerance": 8448,
			"penguin": 8449,
			"cum": 8450,
			"jockey": 8451,
			"insufficient": 8452,
			"processed": 8453,
			"introduces": 8454,
			"##yon": 8455,
			"candles": 8456,
			"wes": 8457,
			"126": 8458,
			"bundle": 8459,
			"glorious": 8460,
			"##hine": 8461,
			"hazel": 8462,
			"sol": 8463,
			"sh": 8464,
			"triangular": 8465,
			"intervals": 8466,
			"##vers": 8467,
			"crafts": 8468,
			"##igo": 8469,
			"jasmine": 8470,
			"ditch": 8471,
			"rite": 8472,
			"##ways": 8473,
			"entertaining": 8474,
			"marian": 8475,
			"rivera": 8476,
			"helpful": 8477,
			"##some": 8478,
			"caution": 8479,
			"downward": 8480,
			"convenient": 8481,
			"fading": 8482,
			"resemblance": 8483,
			"##uda": 8484,
			"bean": 8485,
			"##rrell": 8486,
			"##ame": 8487,
			"##bby": 8488,
			"132": 8489,
			"##fest": 8490,
			"stretches": 8491,
			"##ast": 8492,
			"alternatively": 8493,
			"nat": 8494,
			"lacks": 8495,
			"##ented": 8496,
			"pam": 8497,
			"tile": 8498,
			"##ided": 8499,
			"moisture": 8500,
			"peculiar": 8501,
			"groove": 8502,
			"zip": 8503,
			"bologna": 8504,
			"ninja": 8505,
			"batch": 8506,
			"emerald": 8507,
			"peel": 8508,
			"rama": 8509,
			"##fying": 8510,
			"##star": 8511,
			"strands": 8512,
			"##ost": 8513,
			"lime": 8514,
			"casa": 8515,
			"accurately": 8516,
			"##rod": 8517,
			"underway": 8518,
			"##uru": 8519,
			"hemisphere": 8520,
			"2d": 8521,
			"##owing": 8522,
			"##dd": 8523,
			"##30": 8524,
			"##ifies": 8525,
			"##ying": 8526,
			"checks": 8527,
			"##о": 8528,
			"##fly": 8529,
			"blu": 8530,
			"##flower": 8531,
			"##ه": 8532,
			"spiders": 8533,
			"kn": 8534,
			"##tail": 8535,
			"mu": 8536,
			"prosperity": 8537,
			"155": 8538,
			"tangled": 8539,
			"adjust": 8540,
			"feeds": 8541,
			"surf": 8542,
			"humid": 8543,
			"reddish": 8544,
			"##nese": 8545,
			"trench": 8546,
			"bind": 8547,
			"bucks": 8548,
			"##nz": 8549,
			"##form": 8550,
			"##uc": 8551,
			"violently": 8552,
			"cyclist": 8553,
			"flats": 8554,
			"ragged": 8555,
			"unnecessary": 8556,
			"stubborn": 8557,
			"harriet": 8558,
			"baba": 8559,
			"330": 8560,
			"insect": 8561,
			"wolfe": 8562,
			"##fies": 8563,
			"bricks": 8564,
			"defeats": 8565,
			"brightly": 8566,
			"##xton": 8567,
			"##hm": 8568,
			"##uki": 8569,
			"colorful": 8570,
			"kidney": 8571,
			"##shu": 8572,
			"##haw": 8573,
			"##wise": 8574,
			"permits": 8575,
			"punished": 8576,
			"disguise": 8577,
			"elise": 8578,
			"dundee": 8579,
			"erotic": 8580,
			"pi": 8581,
			"float": 8582,
			"individually": 8583,
			"rendering": 8584,
			"ser": 8585,
			"hare": 8586,
			"nutrition": 8587,
			"proportional": 8588,
			"##isa": 8589,
			"##kis": 8590,
			"pavement": 8591,
			"##eld": 8592,
			"##lp": 8593,
			"##urn": 8594,
			"##pu": 8595,
			"cube": 8596,
			"pasha": 8597,
			"privilege": 8598,
			"scouting": 8599,
			"##lov": 8600,
			"assure": 8601,
			"slap": 8602,
			"dripping": 8603,
			"slumped": 8604,
			"squares": 8605,
			"##cle": 8606,
			"##kins": 8607,
			"bert": 8608,
			"##aid": 8609,
			"starr": 8610,
			"brains": 8611,
			"mortar": 8612,
			"##jon": 8613,
			"##him": 8614,
			"unfinished": 8615,
			"##rre": 8616,
			"canoe": 8617,
			"solitary": 8618,
			"buchanan": 8619,
			"fk": 8620,
			"##pling": 8621,
			"##lier": 8622,
			"##vier": 8623,
			"assess": 8624,
			"##mouth": 8625,
			"antique": 8626,
			"tub": 8627,
			"zhou": 8628,
			"smashed": 8629,
			"dexter": 8630,
			"##pf": 8631,
			"129": 8632,
			"lemon": 8633,
			"dom": 8634,
			"dioxide": 8635,
			"devi": 8636,
			"sic": 8637,
			"tremendous": 8638,
			"transferring": 8639,
			"utter": 8640,
			"pac": 8641,
			"##top": 8642,
			"beacon": 8643,
			"limp": 8644,
			"similarity": 8645,
			"terra": 8646,
			"ant": 8647,
			"becky": 8648,
			"pal": 8649,
			"halloween": 8650,
			"mayo": 8651,
			"##ssen": 8652,
			"##bone": 8653,
			"cara": 8654,
			"dolls": 8655,
			"##dling": 8656,
			"##ime": 8657,
			"##lah": 8658,
			"##park": 8659,
			"kitty": 8660,
			"spill": 8661,
			"crystals": 8662,
			"separating": 8663,
			"attachment": 8664,
			"sammy": 8665,
			"expose": 8666,
			"anchored": 8667,
			"bending": 8668,
			"winged": 8669,
			"dresses": 8670,
			"burmese": 8671,
			"authentic": 8672,
			"una": 8673,
			"##bat": 8674,
			"unstable": 8675,
			"##cian": 8676,
			"curls": 8677,
			"obscure": 8678,
			"uncovered": 8679,
			"disappearing": 8680,
			"##hoe": 8681,
			"coke": 8682,
			"pits": 8683,
			"##ي": 8684,
			"##mir": 8685,
			"133": 8686,
			"##oll": 8687,
			"rack": 8688,
			"goodman": 8689,
			"##rman": 8690,
			"persistent": 8691,
			"##ott": 8692,
			"countless": 8693,
			"lexington": 8694,
			"jumps": 8695,
			"##11": 8696,
			"crushing": 8697,
			"##holder": 8698,
			"decorations": 8699,
			"abundance": 8700,
			"garde": 8701,
			"##rp": 8702,
			"jeanne": 8703,
			"peasant": 8704,
			"##sl": 8705,
			"splitting": 8706,
			"caste": 8707,
			"##rer": 8708,
			"##ema": 8709,
			"##ively": 8710,
			"rub": 8711,
			"##vor": 8712,
			"scrapped": 8713,
			"gale": 8714,
			"packages": 8715,
			"chick": 8716,
			"potato": 8717,
			"counterparts": 8718,
			"reminiscent": 8719,
			"##tead": 8720,
			"rand": 8721,
			"retains": 8722,
			"accomplish": 8723,
			"courtesy": 8724,
			"closes": 8725,
			"##oth": 8726,
			"tailed": 8727,
			"ginger": 8728,
			"##ttes": 8729,
			"##hof": 8730,
			"allegiance": 8731,
			"kicks": 8732,
			"rebuild": 8733,
			"rowan": 8734,
			"fortunately": 8735,
			"harp": 8736,
			"dillon": 8737,
			"##oro": 8738,
			"ropes": 8739,
			"##α": 8740,
			"rewarded": 8741,
			"infrared": 8742,
			"wiping": 8743,
			"accelerated": 8744,
			"illustration": 8745,
			"##rid": 8746,
			"presses": 8747,
			"##iard": 8748,
			"##tera": 8749,
			"recognizing": 8750,
			"##sies": 8751,
			"##tly": 8752,
			"piercing": 8753,
			"potatoes": 8754,
			"ours": 8755,
			"##jin": 8756,
			"##iss": 8757,
			"##ear": 8758,
			"nassau": 8759,
			"##dock": 8760,
			"staggered": 8761,
			"##tical": 8762,
			"##ook": 8763,
			"##rata": 8764,
			"##uit": 8765,
			"wires": 8766,
			"unlimited": 8767,
			"guiding": 8768,
			"##rama": 8769,
			"pas": 8770,
			"clive": 8771,
			"extraction": 8772,
			"131": 8773,
			"continually": 8774,
			"chu": 8775,
			"quote": 8776,
			"mayer": 8777,
			"abs": 8778,
			"spat": 8779,
			"##hua": 8780,
			"ceramic": 8781,
			"##cci": 8782,
			"pigs": 8783,
			"pitching": 8784,
			"##dad": 8785,
			"latvian": 8786,
			"sore": 8787,
			"##sted": 8788,
			"slice": 8789,
			"stool": 8790,
			"apparatus": 8791,
			"mates": 8792,
			"##ija": 8793,
			"desires": 8794,
			"mir": 8795,
			"leonardo": 8796,
			"grape": 8797,
			"stunning": 8798,
			"enthusiastic": 8799,
			"##ede": 8800,
			"currents": 8801,
			"basil": 8802,
			"mai": 8803,
			"shove": 8804,
			"##shed": 8805,
			"packing": 8806,
			"fry": 8807,
			"pencil": 8808,
			"wines": 8809,
			"smells": 8810,
			"144": 8811,
			"marilyn": 8812,
			"newest": 8813,
			"clung": 8814,
			"bon": 8815,
			"##pie": 8816,
			"mug": 8817,
			"##stock": 8818,
			"drowning": 8819,
			"##mma": 8820,
			"##vil": 8821,
			"reminder": 8822,
			"sour": 8823,
			"packet": 8824,
			"##rion": 8825,
			"##elle": 8826,
			"##inate": 8827,
			"depressed": 8828,
			"##rit": 8829,
			"importantly": 8830,
			"##tled": 8831,
			"marginal": 8832,
			"corresponds": 8833,
			"royce": 8834,
			"packaging": 8835,
			"aluminium": 8836,
			"##ttered": 8837,
			"rhythmic": 8838,
			"outlined": 8839,
			"lad": 8840,
			"greeting": 8841,
			"##dic": 8842,
			"pillar": 8843,
			"marcos": 8844,
			"alcoholic": 8845,
			"slides": 8846,
			"extract": 8847,
			"blur": 8848,
			"owens": 8849,
			"omega": 8850,
			"socks": 8851,
			"accumulated": 8852,
			"lining": 8853,
			"##key": 8854,
			"1200": 8855,
			"ti": 8856,
			"##hey": 8857,
			"##yam": 8858,
			"##pping": 8859,
			"##hol": 8860,
			"ja": 8861,
			"##chan": 8862,
			"reconstructed": 8863,
			"clearance": 8864,
			"##nier": 8865,
			"plea": 8866,
			"dei": 8867,
			"upwards": 8868,
			"ducks": 8869,
			"##fo": 8870,
			"workforce": 8871,
			"limiting": 8872,
			"shri": 8873,
			"##lson": 8874,
			"kerr": 8875,
			"moths": 8876,
			"laden": 8877,
			"disturbing": 8878,
			"locking": 8879,
			"##cture": 8880,
			"gal": 8881,
			"flavor": 8882,
			"aide": 8883,
			"melt": 8884,
			"##ures": 8885,
			"texture": 8886,
			"soda": 8887,
			"##mb": 8888,
			"herd": 8889,
			"erect": 8890,
			"hum": 8891,
			"peggy": 8892,
			"ren": 8893,
			"sacks": 8894,
			"tutor": 8895,
			"ec": 8896,
			"combinations": 8897,
			"ct": 8898,
			"rocking": 8899,
			"flared": 8900,
			"seller": 8901,
			"exposing": 8902,
			"##hd": 8903,
			"##has": 8904,
			"noises": 8905,
			"vivid": 8906,
			"pol": 8907,
			"##bol": 8908,
			"dart": 8909,
			"indirect": 8910,
			"notebook": 8911,
			"upside": 8912,
			"displaying": 8913,
			"geometric": 8914,
			"blunt": 8915,
			"##far": 8916,
			"liaison": 8917,
			"cooler": 8918,
			"cares": 8919,
			"headache": 8920,
			"dots": 8921,
			"impulse": 8922,
			"thickness": 8923,
			"137": 8924,
			"fowler": 8925,
			"symmetry": 8926,
			"thee": 8927,
			"225": 8928,
			"hears": 8929,
			"##rai": 8930,
			"ads": 8931,
			"butcher": 8932,
			"##lip": 8933,
			"cigarettes": 8934,
			"goodness": 8935,
			"browne": 8936,
			"##tech": 8937,
			"damaging": 8938,
			"friction": 8939,
			"hardened": 8940,
			"152": 8941,
			"blankets": 8942,
			"claw": 8943,
			"tossing": 8944,
			"butterflies": 8945,
			"coated": 8946,
			"138": 8947,
			"communal": 8948,
			"hai": 8949,
			"foreigners": 8950,
			"##pc": 8951,
			"explode": 8952,
			"dared": 8953,
			"proto": 8954,
			"oddly": 8955,
			"##base": 8956,
			"thanksgiving": 8957,
			"##rist": 8958,
			"sheila": 8959,
			"deliberate": 8960,
			"ou": 8961,
			"##tling": 8962,
			"samoa": 8963,
			"mouths": 8964,
			"consuming": 8965,
			"razor": 8966,
			"fixture": 8967,
			"inviting": 8968,
			"julio": 8969,
			"pitt": 8970,
			"##oss": 8971,
			"exhaust": 8972,
			"bavarian": 8973,
			"draped": 8974,
			"ethiopian": 8975,
			"discarded": 8976,
			"convenience": 8977,
			"hoffman": 8978,
			"probe": 8979,
			"sleeves": 8980,
			"interfere": 8981,
			"lump": 8982,
			"scrap": 8983,
			"alternating": 8984,
			"nam": 8985,
			"seize": 8986,
			"descending": 8987,
			"kirby": 8988,
			"coupe": 8989,
			"smash": 8990,
			"sedan": 8991,
			"tapping": 8992,
			"##18": 8993,
			"cheer": 8994,
			"##eter": 8995,
			"##fan": 8996,
			"##lda": 8997,
			"cautiously": 8998,
			"##mans": 8999,
			"##fields": 9000,
			"surround": 9001,
			"##take": 9002,
			"134": 9003,
			"unused": 9004,
			"##rating": 9005,
			"packs": 9006,
			"toast": 9007,
			"regulate": 9008,
			"thy": 9009,
			"assam": 9010,
			"affordable": 9011,
			"##rb": 9012,
			"sells": 9013,
			"beneficial": 9014,
			"repeating": 9015,
			"deluxe": 9016,
			"##lian": 9017,
			"slamming": 9018,
			"transfers": 9019,
			"banana": 9020,
			"berg": 9021,
			"bamboo": 9022,
			"##uchi": 9023,
			"resurrection": 9024,
			"bowls": 9025,
			"vaguely": 9026,
			"##thi": 9027,
			"thou": 9028,
			"preserving": 9029,
			"watt": 9030,
			"tying": 9031,
			"daring": 9032,
			"##hale": 9033,
			"##girl": 9034,
			"aura": 9035,
			"overly": 9036,
			"filing": 9037,
			"weighing": 9038,
			"goa": 9039,
			"##owski": 9040,
			"radial": 9041,
			"##kha": 9042,
			"reliability": 9043,
			"koch": 9044,
			"ada": 9045,
			"supper": 9046,
			"##rth": 9047,
			"cola": 9048,
			"##boards": 9049,
			"##nah": 9050,
			"compartment": 9051,
			"crooked": 9052,
			"##ctive": 9053,
			"havana": 9054,
			"clips": 9055,
			"cracks": 9056,
			"##е": 9057,
			"shelby": 9058,
			"definite": 9059,
			"smoothly": 9060,
			"insult": 9061,
			"baton": 9062,
			"discs": 9063,
			"lingering": 9064,
			"##nco": 9065,
			"lent": 9066,
			"shaky": 9067,
			"##tron": 9068,
			"sk": 9069,
			"adverse": 9070,
			"economically": 9071,
			"##moto": 9072,
			"thor": 9073,
			"motions": 9074,
			"nostrils": 9075,
			"##pace": 9076,
			"squeezing": 9077,
			"prolonged": 9078,
			"venezuelan": 9079,
			"je": 9080,
			"##bbling": 9081,
			"imaginary": 9082,
			"pills": 9083,
			"blaze": 9084,
			"vacated": 9085,
			"eliminating": 9086,
			"##ello": 9087,
			"vine": 9088,
			"clutch": 9089,
			"bail": 9090,
			"weaving": 9091,
			"##nett": 9092,
			"##witz": 9093,
			"worrying": 9094,
			"dorset": 9095,
			"manned": 9096,
			"pickup": 9097,
			"185": 9098,
			"##rz": 9099,
			"##ffin": 9100,
			"uc": 9101,
			"lick": 9102,
			"turbo": 9103,
			"##ffed": 9104,
			"curl": 9105,
			"ankles": 9106,
			"##د": 9107,
			"##ache": 9108,
			"perfection": 9109,
			"##iting": 9110,
			"muddy": 9111,
			"backgrounds": 9112,
			"vegetable": 9113,
			"##quent": 9114,
			"jen": 9115,
			"##ond": 9116,
			"cellar": 9117,
			"bites": 9118,
			"royals": 9119,
			"flemish": 9120,
			"mast": 9121,
			"peruvian": 9122,
			"ipswich": 9123,
			"outward": 9124,
			"folds": 9125,
			"##ouse": 9126,
			"fiery": 9127,
			"##tai": 9128,
			"contingent": 9129,
			"lizard": 9130,
			"mal": 9131,
			"gig": 9132,
			"##pad": 9133,
			"##ipe": 9134,
			"##nos": 9135,
			"##tam": 9136,
			"##nge": 9137,
			"141": 9138,
			"##lc": 9139,
			"##tton": 9140,
			"shelves": 9141,
			"aug": 9142,
			"bourbon": 9143,
			"curry": 9144,
			"specifications": 9145,
			"##ndo": 9146,
			"centennial": 9147,
			"dispersed": 9148,
			"worm": 9149,
			"sm": 9150,
			"font": 9151,
			"##nstein": 9152,
			"##bound": 9153,
			"##aking": 9154,
			"awaiting": 9155,
			"##bbed": 9156,
			"optimal": 9157,
			"greens": 9158,
			"worries": 9159,
			"##life": 9160,
			"refined": 9161,
			"sins": 9162,
			"nickel": 9163,
			"resembling": 9164,
			"##mos": 9165,
			"##run": 9166,
			"##lous": 9167,
			"chemist": 9168,
			"wi": 9169,
			"reminds": 9170,
			"steals": 9171,
			"ri": 9172,
			"rai": 9173,
			"sant": 9174,
			"##qui": 9175,
			"feather": 9176,
			"deborah": 9177,
			"##wed": 9178,
			"##eet": 9179,
			"hazard": 9180,
			"veil": 9181,
			"clarity": 9182,
			"##rik": 9183,
			"jewels": 9184,
			"##ows": 9185,
			"##cup": 9186,
			"berkshire": 9187,
			"orchid": 9188,
			"stranded": 9189,
			"obe": 9190,
			"infinity": 9191,
			"##nies": 9192,
			"adapt": 9193,
			"noir": 9194,
			"ole": 9195,
			"##ais": 9196,
			"crisp": 9197,
			"##bian": 9198,
			"##rew": 9199,
			"pony": 9200,
			"cassandra": 9201,
			"##orted": 9202,
			"deeds": 9203,
			"castles": 9204,
			"##glass": 9205,
			"orchard": 9206,
			"yep": 9207,
			"skinny": 9208,
			"##mis": 9209,
			"boiler": 9210,
			"##ride": 9211,
			"disappointing": 9212,
			"spoon": 9213,
			"enjoys": 9214,
			"realism": 9215,
			"rodgers": 9216,
			"dump": 9217,
			"chestnut": 9218,
			"communion": 9219,
			"logs": 9220,
			"loads": 9221,
			"##iano": 9222,
			"ale": 9223,
			"##cas": 9224,
			"phrases": 9225,
			"plaster": 9226,
			"kaiser": 9227,
			"850": 9228,
			"mastered": 9229,
			"##nding": 9230,
			"rooted": 9231,
			"threaten": 9232,
			"##hes": 9233,
			"suggestions": 9234,
			"coats": 9235,
			"comet": 9236,
			"identities": 9237,
			"wary": 9238,
			"neat": 9239,
			"##kos": 9240,
			"##kka": 9241,
			"minus": 9242,
			"##chel": 9243,
			"jar": 9244,
			"##plate": 9245,
			"surplus": 9246,
			"cracking": 9247,
			"##lights": 9248,
			"intentionally": 9249,
			"##iri": 9250,
			"diner": 9251,
			"imprint": 9252,
			"tong": 9253,
			"specialists": 9254,
			"nichols": 9255,
			"leaked": 9256,
			"##uka": 9257,
			"shrub": 9258,
			"roofs": 9259,
			"v8": 9260,
			"captains": 9261,
			"##jet": 9262,
			"frantic": 9263,
			"intensified": 9264,
			"stocks": 9265,
			"sustain": 9266,
			"genoa": 9267,
			"##written": 9268,
			"clues": 9269,
			"cha": 9270,
			"##gers": 9271,
			"##ente": 9272,
			"##sca": 9273,
			"vain": 9274,
			"sire": 9275,
			"laos": 9276,
			"##ingly": 9277,
			"snapping": 9278,
			"surfaced": 9279,
			"##oft": 9280,
			"contests": 9281,
			"approximate": 9282,
			"mesa": 9283,
			"dinosaur": 9284,
			"exchanges": 9285,
			"accord": 9286,
			"relieve": 9287,
			"tow": 9288,
			"masks": 9289,
			"##ues": 9290,
			"##mmer": 9291,
			"##sai": 9292,
			"legged": 9293,
			"lagoon": 9294,
			"petals": 9295,
			"##inian": 9296,
			"mandarin": 9297,
			"##inated": 9298,
			"cindy": 9299,
			"firstly": 9300,
			"overs": 9301,
			"##uke": 9302,
			"##bos": 9303,
			"woo": 9304,
			"pumps": 9305,
			"stalked": 9306,
			"##uli": 9307,
			"weaker": 9308,
			"##night": 9309,
			"gases": 9310,
			"shoving": 9311,
			"weights": 9312,
			"robust": 9313,
			"flanked": 9314,
			"sticky": 9315,
			"hu": 9316,
			"##eb": 9317,
			"##eal": 9318,
			"wallet": 9319,
			"reese": 9320,
			"inappropriate": 9321,
			"pictured": 9322,
			"fixing": 9323,
			"fiddle": 9324,
			"burger": 9325,
			"hairy": 9326,
			"apache": 9327,
			"##tag": 9328,
			"extracted": 9329,
			"meaningful": 9330,
			"numb": 9331,
			"gloucestershire": 9332,
			"reminding": 9333,
			"##bay": 9334,
			"unite": 9335,
			"##lit": 9336,
			"diminished": 9337,
			"clown": 9338,
			"glove": 9339,
			"##ن": 9340,
			"##ug": 9341,
			"sliced": 9342,
			"##yk": 9343,
			"switches": 9344,
			"stray": 9345,
			"##ril": 9346,
			"lever": 9347,
			"loops": 9348,
			"anytime": 9349,
			"reel": 9350,
			"delighted": 9351,
			"##ech": 9352,
			"inhaled": 9353,
			"vega": 9354,
			"induction": 9355,
			"##right": 9356,
			"michele": 9357,
			"alternatives": 9358,
			"ions": 9359,
			"pork": 9360,
			"wit": 9361,
			"drunken": 9362,
			"wrinkled": 9363,
			"spends": 9364,
			"chung": 9365,
			"##zone": 9366,
			"##udge": 9367,
			"neatly": 9368,
			"##vel": 9369,
			"slightest": 9370,
			"xu": 9371,
			"##hel": 9372,
			"appealing": 9373,
			"brewing": 9374,
			"gypsy": 9375,
			"mali": 9376,
			"unpleasant": 9377,
			"bio": 9378,
			"pulp": 9379,
			"boiling": 9380,
			"mantle": 9381,
			"##ffe": 9382,
			"ins": 9383,
			"dividing": 9384,
			"handles": 9385,
			"verbs": 9386,
			"##onal": 9387,
			"coconut": 9388,
			"senegal": 9389,
			"340": 9390,
			"thorough": 9391,
			"gum": 9392,
			"momentarily": 9393,
			"##sto": 9394,
			"destined": 9395,
			"##16": 9396,
			"##wu": 9397,
			"stud": 9398,
			"internally": 9399,
			"##ovo": 9400,
			"tex": 9401,
			"mosaic": 9402,
			"distribute": 9403,
			"paddy": 9404,
			"seeming": 9405,
			"143": 9406,
			"##hic": 9407,
			"##15": 9408,
			"mccoy": 9409,
			"##bag": 9410,
			"verge": 9411,
			"fireworks": 9412,
			"dominate": 9413,
			"##jar": 9414,
			"##60": 9415,
			"142": 9416,
			"##ndi": 9417,
			"stiffened": 9418,
			"cue": 9419,
			"##uf": 9420,
			"damascus": 9421,
			"amor": 9422,
			"ida": 9423,
			"##aga": 9424,
			"dir": 9425,
			"##azi": 9426,
			"lexi": 9427,
			"ants": 9428,
			"##olved": 9429,
			"##nr": 9430,
			"##ressed": 9431,
			"customary": 9432,
			"flashes": 9433,
			"gala": 9434,
			"backyard": 9435,
			"ariel": 9436,
			"greenland": 9437,
			"stir": 9438,
			"ked": 9439,
			"##lent": 9440,
			"mas": 9441,
			"fits": 9442,
			"containers": 9443,
			"aragon": 9444,
			"##19": 9445,
			"forearm": 9446,
			"poisoning": 9447,
			"grinding": 9448,
			"evaluate": 9449,
			"lankan": 9450,
			"instincts": 9451,
			"##uto": 9452,
			"guam": 9453,
			"desirable": 9454,
			"##dog": 9455,
			"encourages": 9456,
			"willy": 9457,
			"##sten": 9458,
			"brighter": 9459,
			"##ν": 9460,
			"lasts": 9461,
			"opener": 9462,
			"sal": 9463,
			"verde": 9464,
			"arte": 9465,
			"yields": 9466,
			"desmond": 9467,
			"strap": 9468,
			"emblem": 9469,
			"marijuana": 9470,
			"northumberland": 9471,
			"##gn": 9472,
			"beaumont": 9473,
			"##qua": 9474,
			"##bler": 9475,
			"th": 9476,
			"ge": 9477,
			"cass": 9478,
			"acc": 9479,
			"motif": 9480,
			"sampling": 9481,
			"##rell": 9482,
			"neon": 9483,
			"##tated": 9484,
			"merrill": 9485,
			"emil": 9486,
			"stove": 9487,
			"fifteenth": 9488,
			"##rier": 9489,
			"worms": 9490,
			"##hc": 9491,
			"prevents": 9492,
			"fiercely": 9493,
			"mari": 9494,
			"painfully": 9495,
			"cheaper": 9496,
			"ign": 9497,
			"pierced": 9498,
			"wonders": 9499,
			"##wig": 9500,
			"##cate": 9501,
			"##iling": 9502,
			"ware": 9503,
			"##uel": 9504,
			"enzymes": 9505,
			"reasonably": 9506,
			"ambition": 9507,
			"bunny": 9508,
			"kernel": 9509,
			"##fin": 9510,
			"pins": 9511,
			"##care": 9512,
			"##yas": 9513,
			"##ules": 9514,
			"selections": 9515,
			"tempted": 9516,
			"##bit": 9517,
			"translates": 9518,
			"waterfront": 9519,
			"manny": 9520,
			"malone": 9521,
			"cookies": 9522,
			"simpler": 9523,
			"absorption": 9524,
			"205": 9525,
			"##ffy": 9526,
			"haze": 9527,
			"146": 9528,
			"comforting": 9529,
			"##abe": 9530,
			"thorn": 9531,
			"##imo": 9532,
			"##pop": 9533,
			"cutter": 9534,
			"##tr": 9535,
			"201": 9536,
			"hovering": 9537,
			"lacey": 9538,
			"tick": 9539,
			"lars": 9540,
			"rep": 9541,
			"bouncing": 9542,
			"##yre": 9543,
			"huntington": 9544,
			"##ground": 9545,
			"##oko": 9546,
			"##hor": 9547,
			"##hima": 9548,
			"nu": 9549,
			"rainy": 9550,
			"liar": 9551,
			"assurance": 9552,
			"##uga": 9553,
			"flattened": 9554,
			"bordeaux": 9555,
			"ridges": 9556,
			"markers": 9557,
			"inactive": 9558,
			"hesitate": 9559,
			"nyc": 9560,
			"pledge": 9561,
			"savoy": 9562,
			"offset": 9563,
			"##tium": 9564,
			"hesse": 9565,
			"marin": 9566,
			"##iver": 9567,
			"diagram": 9568,
			"pu": 9569,
			"##dc": 9570,
			"responds": 9571,
			"##ø": 9572,
			"##rea": 9573,
			"ein": 9574,
			"sf": 9575,
			"birch": 9576,
			"##dh": 9577,
			"rd": 9578,
			"##ob": 9579,
			"setup": 9580,
			"farmland": 9581,
			"centred": 9582,
			"370": 9583,
			"##ingham": 9584,
			"##uts": 9585,
			"ceylon": 9586,
			"laurie": 9587,
			"##tern": 9588,
			"threads": 9589,
			"##cross": 9590,
			"148": 9591,
			"utilize": 9592,
			"determines": 9593,
			"merging": 9594,
			"builds": 9595,
			"dev": 9596,
			"cho": 9597,
			"proves": 9598,
			"turtles": 9599,
			"sinister": 9600,
			"traction": 9601,
			"swirling": 9602,
			"##lder": 9603,
			"##oat": 9604,
			"##genic": 9605,
			"##oor": 9606,
			"beginnings": 9607,
			"dip": 9608,
			"##eno": 9609,
			"pigeon": 9610,
			"serpent": 9611,
			"##itating": 9612,
			"masked": 9613,
			"salad": 9614,
			"##gr": 9615,
			"surreal": 9616,
			"151": 9617,
			"##coat": 9618,
			"##wave": 9619,
			"taiwanese": 9620,
			"eyelids": 9621,
			"cooke": 9622,
			"##etta": 9623,
			"##print": 9624,
			"lana": 9625,
			"##rak": 9626,
			"openings": 9627,
			"concord": 9628,
			"##bl": 9629,
			"##cine": 9630,
			"coma": 9631,
			"softened": 9632,
			"grapes": 9633,
			"##17": 9634,
			"nguyen": 9635,
			"hubbard": 9636,
			"heavenly": 9637,
			"behave": 9638,
			"##hit": 9639,
			"##ony": 9640,
			"likelihood": 9641,
			"##aging": 9642,
			"bern": 9643,
			"sci": 9644,
			"honolulu": 9645,
			"##wang": 9646,
			"imagining": 9647,
			"contributes": 9648,
			"gradual": 9649,
			"##amp": 9650,
			"sparkling": 9651,
			"compressed": 9652,
			"139": 9653,
			"fungus": 9654,
			"rests": 9655,
			"lincolnshire": 9656,
			"retailers": 9657,
			"distributor": 9658,
			"nun": 9659,
			"oman": 9660,
			"##sti": 9661,
			"eddy": 9662,
			"judgement": 9663,
			"omitted": 9664,
			"##cts": 9665,
			"##game": 9666,
			"##rae": 9667,
			"une": 9668,
			"##ngo": 9669,
			"breton": 9670,
			"nan": 9671,
			"fibers": 9672,
			"liking": 9673,
			"##cca": 9674,
			"154": 9675,
			"magician": 9676,
			"##rable": 9677,
			"##unt": 9678,
			"warmer": 9679,
			"##static": 9680,
			"consume": 9681,
			"cavern": 9682,
			"gaps": 9683,
			"compass": 9684,
			"soothing": 9685,
			"graveyard": 9686,
			"maj": 9687,
			"plunged": 9688,
			"blush": 9689,
			"cascade": 9690,
			"demonstrates": 9691,
			"##lana": 9692,
			"rockefeller": 9693,
			"shaken": 9694,
			"banjo": 9695,
			"##ense": 9696,
			"vines": 9697,
			"##32": 9698,
			"##eman": 9699,
			"mole": 9700,
			"153": 9701,
			"catalonia": 9702,
			"fridge": 9703,
			"hats": 9704,
			"heap": 9705,
			"infants": 9706,
			"chatham": 9707,
			"zen": 9708,
			"156": 9709,
			"traps": 9710,
			"maturity": 9711,
			"##nay": 9712,
			"dealers": 9713,
			"##cre": 9714,
			"##zers": 9715,
			"recommend": 9716,
			"berger": 9717,
			"##ctor": 9718,
			"grounded": 9719,
			"##bine": 9720,
			"choke": 9721,
			"italians": 9722,
			"wee": 9723,
			"##oured": 9724,
			"##nti": 9725,
			"##piration": 9726,
			"##asa": 9727,
			"thumbs": 9728,
			"167": 9729,
			"##nza": 9730,
			"coca": 9731,
			"cheating": 9732,
			"##ption": 9733,
			"skipped": 9734,
			"spies": 9735,
			"202": 9736,
			"bohemia": 9737,
			"whitish": 9738,
			"confusing": 9739,
			"ravi": 9740,
			"alejandro": 9741,
			"litre": 9742,
			"##rek": 9743,
			"insists": 9744,
			"poked": 9745,
			"somali": 9746,
			"chalk": 9747,
			"potent": 9748,
			"##ucci": 9749,
			"wink": 9750,
			"nos": 9751,
			"##ario": 9752,
			"colon": 9753,
			"##sat": 9754,
			"##erated": 9755,
			"##р": 9756,
			"knob": 9757,
			"##mers": 9758,
			"propped": 9759,
			"orient": 9760,
			"temperate": 9761,
			"farmhouse": 9762,
			"##vd": 9763,
			"##vert": 9764,
			"strawberry": 9765,
			"ponds": 9766,
			"shocking": 9767,
			"chant": 9768,
			"sped": 9769,
			"absorb": 9770,
			"hail": 9771,
			"##hore": 9772,
			"barbados": 9773,
			"##xie": 9774,
			"evergreen": 9775,
			"##rock": 9776,
			"exaggerated": 9777,
			"bump": 9778,
			"tracing": 9779,
			"utilizing": 9780,
			"##ners": 9781,
			"kneeling": 9782,
			"##stad": 9783,
			"##thy": 9784,
			"decreasing": 9785,
			"168": 9786,
			"manipulation": 9787,
			"##lem": 9788,
			"##14": 9789,
			"rotary": 9790,
			"stacked": 9791,
			"incorporation": 9792,
			"awakening": 9793,
			"##omy": 9794,
			"pops": 9795,
			"zu": 9796,
			"##vate": 9797,
			"mornings": 9798,
			"tastes": 9799,
			"db": 9800,
			"##jee": 9801,
			"regan": 9802,
			"differing": 9803,
			"concentrating": 9804,
			"madeline": 9805,
			"culminating": 9806,
			"lam": 9807,
			"programmed": 9808,
			"tar": 9809,
			"guessing": 9810,
			"##gna": 9811,
			"##lining": 9812,
			"##rgan": 9813,
			"abused": 9814,
			"ling": 9815,
			"exceeding": 9816,
			"##₄": 9817,
			"supermarket": 9818,
			"##ark": 9819,
			"tilt": 9820,
			"perfume": 9821,
			"380": 9822,
			"sami": 9823,
			"threatens": 9824,
			"garland": 9825,
			"boiled": 9826,
			"puppy": 9827,
			"supplier": 9828,
			"vibrant": 9829,
			"licking": 9830,
			"margins": 9831,
			"fest": 9832,
			"ripping": 9833,
			"##uz": 9834,
			"weigh": 9835,
			"##sian": 9836,
			"needles": 9837,
			"costly": 9838,
			"##not": 9839,
			"fulton": 9840,
			"cache": 9841,
			"watkins": 9842,
			"sleepy": 9843,
			"##bid": 9844,
			"overturned": 9845,
			"gem": 9846,
			"##iger": 9847,
			"ang": 9848,
			"exceptionally": 9849,
			"stab": 9850,
			"##rdi": 9851,
			"rom": 9852,
			"##vision": 9853,
			"coil": 9854,
			"satisfying": 9855,
			"vendors": 9856,
			"ambient": 9857,
			"tugging": 9858,
			"morse": 9859,
			"##₀": 9860,
			"soo": 9861,
			"bargain": 9862,
			"##cer": 9863,
			"##gles": 9864,
			"##dam": 9865,
			"lively": 9866,
			"##13": 9867,
			"romanesque": 9868,
			"shan": 9869,
			"##ood": 9870,
			"##ske": 9871,
			"amalgamated": 9872,
			"disappears": 9873,
			"cautious": 9874,
			"##ر": 9875,
			"aus": 9876,
			"tor": 9877,
			"canary": 9878,
			"cote": 9879,
			"theirs": 9880,
			"##hun": 9881,
			"fascinating": 9882,
			"paso": 9883,
			"blazing": 9884,
			"##outh": 9885,
			"##zin": 9886,
			"tee": 9887,
			"wooded": 9888,
			"##ono": 9889,
			"cobb": 9890,
			"brace": 9891,
			"dem": 9892,
			"caravan": 9893,
			"scroll": 9894,
			"cows": 9895,
			"##adi": 9896,
			"##aneous": 9897,
			"cora": 9898,
			"310": 9899,
			"##bers": 9900,
			"halo": 9901,
			"compose": 9902,
			"##oot": 9903,
			"az": 9904,
			"toulouse": 9905,
			"deserves": 9906,
			"humour": 9907,
			"nr": 9908,
			"tam": 9909,
			"290": 9910,
			"stellar": 9911,
			"hopped": 9912,
			"##chin": 9913,
			"temptation": 9914,
			"nas": 9915,
			"adaptations": 9916,
			"gong": 9917,
			"indicator": 9918,
			"##gies": 9919,
			"correspond": 9920,
			"bubbles": 9921,
			"skate": 9922,
			"therapeutic": 9923,
			"sac": 9924,
			"460": 9925,
			"petit": 9926,
			"##zzled": 9927,
			"leak": 9928,
			"##yx": 9929,
			"dams": 9930,
			"namesake": 9931,
			"##iser": 9932,
			"snout": 9933,
			"reuben": 9934,
			"480": 9935,
			"##ibly": 9936,
			"##lau": 9937,
			"##pd": 9938,
			"##ieu": 9939,
			"##llar": 9940,
			"asa": 9941,
			"##sea": 9942,
			"##was": 9943,
			"flick": 9944,
			"underside": 9945,
			"substituted": 9946,
			"195": 9947,
			"chimney": 9948,
			"##iche": 9949,
			"guinness": 9950,
			"cb": 9951,
			"##ager": 9952,
			"siding": 9953,
			"##bell": 9954,
			"149": 9955,
			"warmed": 9956,
			"eco": 9957,
			"##ike": 9958,
			"bacterial": 9959,
			"phosphate": 9960,
			"##core": 9961,
			"a1": 9962,
			"indirectly": 9963,
			"pill": 9964,
			"ul": 9965,
			"##jack": 9966,
			"161": 9967,
			"motifs": 9968,
			"##osh": 9969,
			"tuning": 9970,
			"irritation": 9971,
			"woven": 9972,
			"fertility": 9973,
			"##erie": 9974,
			"glacial": 9975,
			"##jas": 9976,
			"cookie": 9977,
			"##tee": 9978,
			"bahn": 9979,
			"renee": 9980,
			"157": 9981,
			"215": 9982,
			"##tock": 9983,
			"fixtures": 9984,
			"integrate": 9985,
			"jai": 9986,
			"##cky": 9987,
			"nests": 9988,
			"##isi": 9989,
			"obsession": 9990,
			"##sum": 9991,
			"440": 9992,
			"simultaneous": 9993,
			"##shin": 9994,
			"collects": 9995,
			"oven": 9996,
			"##я": 9997,
			"slips": 9998,
			"420": 9999,
			"tails": 10000,
			"visually": 10001,
			"mage": 10002,
			"derry": 10003,
			"##rdy": 10004,
			"drying": 10005,
			"prep": 10006,
			"##21": 10007,
			"fills": 10008,
			"##books": 10009,
			"##iki": 10010,
			"mystic": 10011,
			"springer": 10012,
			"dal": 10013,
			"nut": 10014,
			"pod": 10015,
			"chewing": 10016,
			"moroccan": 10017,
			"punjabi": 10018,
			"##ße": 10019,
			"scattering": 10020,
			"hui": 10021,
			"arid": 10022,
			"##dha": 10023,
			"linen": 10024,
			"maneuver": 10025,
			"shutting": 10026,
			"bounce": 10027,
			"jeremiah": 10028,
			"275": 10029,
			"beads": 10030,
			"rubble": 10031,
			"enclosure": 10032,
			"sob": 10033,
			"cancel": 10034,
			"polly": 10035,
			"yielded": 10036,
			"curly": 10037,
			"battered": 10038,
			"70s": 10039,
			"render": 10040,
			"sails": 10041,
			"riga": 10042,
			"raging": 10043,
			"herbs": 10044,
			"giggle": 10045,
			"imminent": 10046,
			"suffers": 10047,
			"##itate": 10048,
			"deepest": 10049,
			"##tier": 10050,
			"##eis": 10051,
			"frogs": 10052,
			"##rong": 10053,
			"slab": 10054,
			"##pate": 10055,
			"grains": 10056,
			"imports": 10057,
			"dickinson": 10058,
			"lan": 10059,
			"tablets": 10060,
			"clone": 10061,
			"##rice": 10062,
			"##gre": 10063,
			"treasures": 10064,
			"tango": 10065,
			"complain": 10066,
			"192": 10067,
			"celestial": 10068,
			"##dus": 10069,
			"bing": 10070,
			"splash": 10071,
			"##rite": 10072,
			"##izer": 10073,
			"harmful": 10074,
			"wedge": 10075,
			"##ope": 10076,
			"rugged": 10077,
			"##gra": 10078,
			"##zzle": 10079,
			"##oom": 10080,
			"joints": 10081,
			"yankee": 10082,
			"heinz": 10083,
			"scandinavian": 10084,
			"hugging": 10085,
			"vitamin": 10086,
			"salute": 10087,
			"hind": 10088,
			"trader": 10089,
			"##sper": 10090,
			"wander": 10091,
			"prop": 10092,
			"##eye": 10093,
			"##oping": 10094,
			"mandolin": 10095,
			"spice": 10096,
			"182": 10097,
			"walled": 10098,
			"afro": 10099,
			"##cap": 10100,
			"158": 10101,
			"##gis": 10102,
			"overlap": 10103,
			"kinda": 10104,
			"manipulate": 10105,
			"ke": 10106,
			"ak": 10107,
			"##tad": 10108,
			"moose": 10109,
			"quad": 10110,
			"##rted": 10111,
			"noticeable": 10112,
			"##evic": 10113,
			"imp": 10114,
			"##rita": 10115,
			"##sque": 10116,
			"filters": 10117,
			"selecting": 10118,
			"masterpiece": 10119,
			"exercised": 10120,
			"flare": 10121,
			"##mobile": 10122,
			"heck": 10123,
			"##sity": 10124,
			"jackets": 10125,
			"porcelain": 10126,
			"rag": 10127,
			"baked": 10128,
			"cheyenne": 10129,
			"lattice": 10130,
			"borrow": 10131,
			"##25": 10132,
			"##von": 10133,
			"cavity": 10134,
			"hobby": 10135,
			"akin": 10136,
			"##holders": 10137,
			"intricate": 10138,
			"cornish": 10139,
			"patty": 10140,
			"##oned": 10141,
			"dolphin": 10142,
			"yellowish": 10143,
			"nana": 10144,
			"##rds": 10145,
			"##rino": 10146,
			"psi": 10147,
			"##eding": 10148,
			"charlton": 10149,
			"##por": 10150,
			"nak": 10151,
			"235": 10152,
			"annex": 10153,
			"##rma": 10154,
			"sect": 10155,
			"162": 10156,
			"hedge": 10157,
			"piled": 10158,
			"uneven": 10159,
			"simplicity": 10160,
			"moderately": 10161,
			"hr": 10162,
			"jamaican": 10163,
			"ping": 10164,
			"##uss": 10165,
			"mongolian": 10166,
			"diver": 10167,
			"eagerly": 10168,
			"pillows": 10169,
			"miracles": 10170,
			"sulfur": 10171,
			"163": 10172,
			"elongated": 10173,
			"##rant": 10174,
			"digest": 10175,
			"weiss": 10176,
			"clinging": 10177,
			"impress": 10178,
			"##ume": 10179,
			"weed": 10180,
			"transforming": 10181,
			"##taking": 10182,
			"##gence": 10183,
			"foil": 10184,
			"decreases": 10185,
			"##80": 10186,
			"sv": 10187,
			"##lde": 10188,
			"##iu": 10189,
			"admitting": 10190,
			"api": 10191,
			"peyton": 10192,
			"beau": 10193,
			"clair": 10194,
			"welch": 10195,
			"164": 10196,
			"##ested": 10197,
			"##vina": 10198,
			"beautifully": 10199,
			"brandy": 10200,
			"foam": 10201,
			"##cake": 10202,
			"laced": 10203,
			"##lim": 10204,
			"smoothed": 10205,
			"##cene": 10206,
			"widening": 10207,
			"recipe": 10208,
			"goats": 10209,
			"##shaw": 10210,
			"striped": 10211,
			"cannabis": 10212,
			"##tering": 10213,
			"graffiti": 10214,
			"hangs": 10215,
			"repeats": 10216,
			"##ych": 10217,
			"revive": 10218,
			"urine": 10219,
			"belts": 10220,
			"fuzzy": 10221,
			"susceptible": 10222,
			"##hang": 10223,
			"beers": 10224,
			"hooks": 10225,
			"##cki": 10226,
			"advise": 10227,
			"junk": 10228,
			"donnell": 10229,
			"processors": 10230,
			"celia": 10231,
			"mendoza": 10232,
			"fortunes": 10233,
			"prejudice": 10234,
			"starving": 10235,
			"steamer": 10236,
			"tuck": 10237,
			"evenly": 10238,
			"foreman": 10239,
			"##ffen": 10240,
			"375": 10241,
			"slit": 10242,
			"##xy": 10243,
			"rosemary": 10244,
			"##weed": 10245,
			"periodically": 10246,
			"potassium": 10247,
			"bianca": 10248,
			"##rane": 10249,
			"spilling": 10250,
			"##nock": 10251,
			"delivers": 10252,
			"isa": 10253,
			"mira": 10254,
			"dessert": 10255,
			"proudly": 10256,
			"slowing": 10257,
			"##chs": 10258,
			"russ": 10259,
			"waits": 10260,
			"crab": 10261,
			"##ull": 10262,
			"groom": 10263,
			"endure": 10264,
			"andes": 10265,
			"refrigerator": 10266,
			"##pr": 10267,
			"ornate": 10268,
			"##uca": 10269,
			"adobe": 10270,
			"##³": 10271,
			"apples": 10272,
			"bakery": 10273,
			"energetic": 10274,
			"##sser": 10275,
			"##ards": 10276,
			"177": 10277,
			"centimeters": 10278,
			"rancho": 10279,
			"oasis": 10280,
			"ordination": 10281,
			"cp": 10282,
			"##pis": 10283,
			"piss": 10284,
			"##48": 10285,
			"##cked": 10286,
			"##ffle": 10287,
			"countdown": 10288,
			"##get": 10289,
			"choi": 10290,
			"##oz": 10291,
			"randomly": 10292,
			"##pol": 10293,
			"scrub": 10294,
			"blanche": 10295,
			"dusseldorf": 10296,
			"##using": 10297,
			"unwanted": 10298,
			"##ums": 10299,
			"212": 10300,
			"elevations": 10301,
			"headlights": 10302,
			"om": 10303,
			"##oga": 10304,
			"famously": 10305,
			"che": 10306,
			"greco": 10307,
			"overhaul": 10308,
			"paz": 10309,
			"skirts": 10310,
			"jagged": 10311,
			"##wes": 10312,
			"##lined": 10313,
			"squirrel": 10314,
			"##ι": 10315,
			"ornamental": 10316,
			"gag": 10317,
			"grange": 10318,
			"proceeding": 10319,
			"yin": 10320,
			"humidity": 10321,
			"weighted": 10322,
			"presentations": 10323,
			"##hell": 10324,
			"171": 10325,
			"protects": 10326,
			"efficiently": 10327,
			"tandem": 10328,
			"##oya": 10329,
			"hee": 10330,
			"peach": 10331,
			"prosperous": 10332,
			"gleaming": 10333,
			"dar": 10334,
			"##rden": 10335,
			"stripe": 10336,
			"##tain": 10337,
			"labelled": 10338,
			"172": 10339,
			"rudy": 10340,
			"alba": 10341,
			"##onne": 10342,
			"##gb": 10343,
			"shudder": 10344,
			"hardest": 10345,
			"pueblo": 10346,
			"##comb": 10347,
			"transporting": 10348,
			"##neck": 10349,
			"depart": 10350,
			"mold": 10351,
			"ledge": 10352,
			"hangar": 10353,
			"romero": 10354,
			"insist": 10355,
			"cradle": 10356,
			"brightness": 10357,
			"slash": 10358,
			"##truct": 10359,
			"microwave": 10360,
			"messy": 10361,
			"convex": 10362,
			"wasting": 10363,
			"##jak": 10364,
			"mont": 10365,
			"##etti": 10366,
			"##keeping": 10367,
			"transverse": 10368,
			"choking": 10369,
			"shear": 10370,
			"##lich": 10371,
			"societe": 10372,
			"locke": 10373,
			"swelling": 10374,
			"##elo": 10375,
			"cheerful": 10376,
			"##edes": 10377,
			"gin": 10378,
			"##nac": 10379,
			"chewed": 10380,
			"dispatch": 10381,
			"##wart": 10382,
			"swell": 10383,
			"yen": 10384,
			"##gee": 10385,
			"idle": 10386,
			"##nds": 10387,
			"##igh": 10388,
			"playful": 10389,
			"tease": 10390,
			"##case": 10391,
			"burgundy": 10392,
			"##bot": 10393,
			"stirring": 10394,
			"##dies": 10395,
			"pinch": 10396,
			"##lik": 10397,
			"preferences": 10398,
			"projecting": 10399,
			"rust": 10400,
			"##guard": 10401,
			"dusk": 10402,
			"##iba": 10403,
			"bt": 10404,
			"##xt": 10405,
			"ju": 10406,
			"calculate": 10407,
			"glucose": 10408,
			"##iful": 10409,
			"richest": 10410,
			"purity": 10411,
			"bruises": 10412,
			"aero": 10413,
			"carving": 10414,
			"##name": 10415,
			"##int": 10416,
			"##iled": 10417,
			"rossi": 10418,
			"treats": 10419,
			"guts": 10420,
			"shu": 10421,
			"##hop": 10422,
			"##bis": 10423,
			"minimize": 10424,
			"hydro": 10425,
			"##gling": 10426,
			"cans": 10427,
			"walnut": 10428,
			"##tley": 10429,
			"sears": 10430,
			"lend": 10431,
			"flipping": 10432,
			"streamed": 10433,
			"por": 10434,
			"gallons": 10435,
			"##gible": 10436,
			"##balls": 10437,
			"208": 10438,
			"##rative": 10439,
			"slated": 10440,
			"circling": 10441,
			"pinched": 10442,
			"lim": 10443,
			"piles": 10444,
			"##tem": 10445,
			"##ught": 10446,
			"preserves": 10447,
			"cypriot": 10448,
			"torpedoes": 10449,
			"bumps": 10450,
			"fiat": 10451,
			"pets": 10452,
			"##mbe": 10453,
			"dye": 10454,
			"reckless": 10455,
			"info": 10456,
			"heats": 10457,
			"176": 10458,
			"maltese": 10459,
			"fins": 10460,
			"mushroom": 10461,
			"stacy": 10462,
			"aspen": 10463,
			"##kur": 10464,
			"##loading": 10465,
			"gail": 10466,
			"kung": 10467,
			"comfortably": 10468,
			"##rgo": 10469,
			"169": 10470,
			"fetch": 10471,
			"faintly": 10472,
			"##oop": 10473,
			"mclaren": 10474,
			"spouse": 10475,
			"miner": 10476,
			"##eni": 10477,
			"181": 10478,
			"clamped": 10479,
			"##llah": 10480,
			"separates": 10481,
			"versa": 10482,
			"##osing": 10483,
			"como": 10484,
			"166": 10485,
			"##100": 10486,
			"bruised": 10487,
			"##pper": 10488,
			"vineyard": 10489,
			"##ili": 10490,
			"##brush": 10491,
			"notch": 10492,
			"hearted": 10493,
			"doe": 10494,
			"##acle": 10495,
			"##ulin": 10496,
			"emilio": 10497,
			"chargers": 10498,
			"colby": 10499,
			"grill": 10500,
			"##aged": 10501,
			"fools": 10502,
			"##hwa": 10503,
			"nudged": 10504,
			"bs": 10505,
			"lori": 10506,
			"rot": 10507,
			"##ades": 10508,
			"##nous": 10509,
			"stainless": 10510,
			"183": 10511,
			"til": 10512,
			"##xa": 10513,
			"benton": 10514,
			"floral": 10515,
			"registers": 10516,
			"##eve": 10517,
			"blanc": 10518,
			"consistency": 10519,
			"contamination": 10520,
			"##eres": 10521,
			"##rner": 10522,
			"dire": 10523,
			"inspire": 10524,
			"brewer": 10525,
			"ky": 10526,
			"hormone": 10527,
			"stokes": 10528,
			"##color": 10529,
			"##dly": 10530,
			"##ssi": 10531,
			"##ometer": 10532,
			"cylinders": 10533,
			"croix": 10534,
			"dangling": 10535,
			"upgrades": 10536,
			"dice": 10537,
			"206": 10538,
			"parlor": 10539,
			"lac": 10540,
			"##rri": 10541,
			"angled": 10542,
			"attain": 10543,
			"cheltenham": 10544,
			"dai": 10545,
			"confess": 10546,
			"tasting": 10547,
			"##rish": 10548,
			"blackwell": 10549,
			"browning": 10550,
			"##put": 10551,
			"vase": 10552,
			"fabulous": 10553,
			"staple": 10554,
			"shay": 10555,
			"##tow": 10556,
			"carmine": 10557,
			"troll": 10558,
			"squash": 10559,
			"##uce": 10560,
			"cylindrical": 10561,
			"len": 10562,
			"handy": 10563,
			"meta": 10564,
			"lao": 10565,
			"##rring": 10566,
			"##elin": 10567,
			"##ł": 10568,
			"tad": 10569,
			"hara": 10570,
			"##24": 10571,
			"vent": 10572,
			"##oran": 10573,
			"quaker": 10574,
			"##ulo": 10575,
			"mono": 10576,
			"silky": 10577,
			"isaiah": 10578,
			"cl": 10579,
			"kilograms": 10580,
			"strains": 10581,
			"##olin": 10582,
			"bernstein": 10583,
			"##ype": 10584,
			"belize": 10585,
			"conversely": 10586,
			"charcoal": 10587,
			"piedmont": 10588,
			"##mmy": 10589,
			"climbs": 10590,
			"sunni": 10591,
			"##tri": 10592,
			"stout": 10593,
			"##avi": 10594,
			"coating": 10595,
			"##mat": 10596,
			"cocktail": 10597,
			"##jit": 10598,
			"##eto": 10599,
			"sar": 10600,
			"##proof": 10601,
			"##ories": 10602,
			"dixie": 10603,
			"pots": 10604,
			"##bow": 10605,
			"##fted": 10606,
			"drains": 10607,
			"coherent": 10608,
			"fore": 10609,
			"appetite": 10610,
			"##uration": 10611,
			"##ators": 10612,
			"peacock": 10613,
			"installment": 10614,
			"##rro": 10615,
			"scotch": 10616,
			"##db": 10617,
			"##fen": 10618,
			"##vant": 10619,
			"##н": 10620,
			"sai": 10621,
			"scaled": 10622,
			"##cles": 10623,
			"mcbride": 10624,
			"##lion": 10625,
			"##ulates": 10626,
			"spherical": 10627,
			"whatsoever": 10628,
			"sweating": 10629,
			"punt": 10630,
			"##dina": 10631,
			"##grant": 10632,
			"##rop": 10633,
			"scarf": 10634,
			"seville": 10635,
			"elk": 10636,
			"nap": 10637,
			"insides": 10638,
			"breakup": 10639,
			"grady": 10640,
			"softer": 10641,
			"222": 10642,
			"galicia": 10643,
			"arranging": 10644,
			"bas": 10645,
			"##sb": 10646,
			"bitten": 10647,
			"ara": 10648,
			"fender": 10649,
			"kris": 10650,
			"banquet": 10651,
			"detector": 10652,
			"##llan": 10653,
			"endowed": 10654,
			"##shot": 10655,
			"##uman": 10656,
			"peek": 10657,
			"epa": 10658,
			"##cic": 10659,
			"rewards": 10660,
			"acquainted": 10661,
			"chloride": 10662,
			"##ald": 10663,
			"quicker": 10664,
			"accordion": 10665,
			"##qa": 10666,
			"pandora": 10667,
			"tx": 10668,
			"##xed": 10669,
			"litter": 10670,
			"hiss": 10671,
			"vow": 10672,
			"nasal": 10673,
			"compensate": 10674,
			"patiently": 10675,
			"philips": 10676,
			"denote": 10677,
			"flaming": 10678,
			"walters": 10679,
			"##uo": 10680,
			"##kle": 10681,
			"fatty": 10682,
			"##nine": 10683,
			"poole": 10684,
			"##ᵢ": 10685,
			"##ₙ": 10686,
			"##dhi": 10687,
			"crust": 10688,
			"mig": 10689,
			"claus": 10690,
			"positioning": 10691,
			"188": 10692,
			"301": 10693,
			"##estinal": 10694,
			"aj": 10695,
			"camel": 10696,
			"calf": 10697,
			"cigar": 10698,
			"penetrate": 10699,
			"##oso": 10700,
			"##rno": 10701,
			"##uche": 10702,
			"##lma": 10703,
			"##rva": 10704,
			"realise": 10705,
			"##sable": 10706,
			"410": 10707,
			"##posed": 10708,
			"adjusting": 10709,
			"##cturing": 10710,
			"uber": 10711,
			"##rce": 10712,
			"swirled": 10713,
			"##num": 10714,
			"proportions": 10715,
			"parma": 10716,
			"apostles": 10717,
			"wen": 10718,
			"##bey": 10719,
			"##inating": 10720,
			"mccain": 10721,
			"rendition": 10722,
			"##ih": 10723,
			"germain": 10724,
			"confirming": 10725,
			"##imeter": 10726,
			"##bei": 10727,
			"##iable": 10728,
			"nero": 10729,
			"##leaf": 10730,
			"##lace": 10731,
			"sud": 10732,
			"impressions": 10733,
			"reins": 10734,
			"##oud": 10735,
			"giro": 10736,
			"##uil": 10737,
			"prefers": 10738,
			"##osition": 10739,
			"bursts": 10740,
			"metaphor": 10741,
			"betting": 10742,
			"specials": 10743,
			"humboldt": 10744,
			"##ckle": 10745,
[...]
